{
  "version": "1.0",
  "truncation": {
    "direction": "Right",
    "max_length": 256,
    "strategy": "LongestFirst",
    "stride": 0
  },
  "padding": null,
  "added_tokens": [
    {
      "id": 0,
      "content": "[PAD]",
      "single_word": false,
      "lstrip": false,
      "rstrip": false,
      "normalized": false,
      "special": true
    },
    {
      "id": 1,
      "content": "[UNK]",
      "single_word": false,
      "lstrip": false,
      "rstrip": false,
      "normalized": false,
      "special": true
    },
    {
      "id": 2,
      "content": "[CLS]",
      "single_word": false,
      "lstrip": false,
      "rstrip": false,
      "normalized": false,
      "special": true
    },
    {
      "id": 3,
      "content": "[SEP]",
      "single_word": false,
      "lstrip": false,
      "rstrip": false,
      "normalized": false,
      "special": true
    },
    {
      "id": 4,
      "content": "[MASK]",
      "single_word": false,
      "lstrip": false,
      "rstrip": false,
      "normalized": false,
      "special": true
    }
  ],
  "normalizer": {
    "type": "BertNormalizer",
    "clean_text": true,
    "handle_chinese_chars": true,
    "strip_accents": false,
    "lowercase": false
  },
  "pre_tokenizer": {
    "type": "BertPreTokenizer"
  },
  "post_processor": {
    "type": "TemplateProcessing",
    "single": [
      {
        "SpecialToken": {
          "id": "[CLS]",
          "type_id": 0
        }
      },
      {
        "Sequence": {
          "id": "A",
          "type_id": 0
        }
      },
      {
        "SpecialToken": {
          "id": "[SEP]",
          "type_id": 0
        }
      }
    ],
    "pair": [
      {
        "SpecialToken": {
          "id": "[CLS]",
          "type_id": 0
        }
      },
      {
        "Sequence": {
          "id": "A",
          "type_id": 0
        }
      },
      {
        "SpecialToken": {
          "id": "[SEP]",
          "type_id": 0
        }
      },
      {
        "Sequence": {
          "id": "B",
          "type_id": 1
        }
      },
      {
        "SpecialToken": {
          "id": "[SEP]",
          "type_id": 1
        }
      }
    ],
    "special_tokens": {
      "[CLS]": {
        "id": "[CLS]",
        "ids": [
          2
        ],
        "tokens": [
          "[CLS]"
        ]
      },
      "[SEP]": {
        "id": "[SEP]",
        "ids": [
          3
        ],
        "tokens": [
          "[SEP]"
        ]
      }
    }
  },
  "decoder": {
    "type": "WordPiece",
    "prefix": "##",
    "cleanup": true
  },
  "model": {
    "type": "WordPiece",
    "unk_token": "[UNK]",
    "continuing_subword_prefix": "##",
    "max_input_chars_per_word": 100,
    "vocab": {
      "[PAD]": 0,
      "[UNK]": 1,
      "[CLS]": 2,
      "[SEP]": 3,
      "[MASK]": 4,
      "!": 5,
      "\"": 6,
      "#": 7,
      "$": 8,
      "%": 9,
      "&": 10,
      "'": 11,
      "(": 12,
      ")": 13,
      "*": 14,
      "+": 15,
      ",": 16,
      "-": 17,
      ".": 18,
      "/": 19,
      "0": 20,
      "1": 21,
      "2": 22,
      "3": 23,
      "4": 24,
      "5": 25,
      "6": 26,
      "7": 27,
      "8": 28,
      "9": 29,
      ":": 30,
      ";": 31,
      "<": 32,
      "=": 33,
      ">": 34,
      "?": 35,
      "@": 36,
      "A": 37,
      "B": 38,
      "C": 39,
      "D": 40,
      "E": 41,
      "F": 42,
      "G": 43,
      "H": 44,
      "I": 45,
      "J": 46,
      "K": 47,
      "L": 48,
      "M": 49,
      "N": 50,
      "O": 51,
      "P": 52,
      "Q": 53,
      "R": 54,
      "S": 55,
      "T": 56,
      "U": 57,
      "V": 58,
      "W": 59,
      "X": 60,
      "Y": 61,
      "Z": 62,
      "[": 63,
      "\\": 64,
      "]": 65,
      "^": 66,
      "_": 67,
      "`": 68,
      "a": 69,
      "b": 70,
      "c": 71,
      "d": 72,
      "e": 73,
      "f": 74,
      "g": 75,
      "h": 76,
      "i": 77,
      "j": 78,
      "k": 79,
      "l": 80,
      "m": 81,
      "n": 82,
      "o": 83,
      "p": 84,
      "q": 85,
      "r": 86,
      "s": 87,
      "t": 88,
      "u": 89,
      "v": 90,
      "w": 91,
      "x": 92,
      "y": 93,
      "z": 94,
      "{": 95,
      "|": 96,
      "}": 97,
      "~": 98,
      "¡": 99,
      "¢": 100,
      "£": 101,
      "¤": 102,
      "¥": 103,
      "¦": 104,
      "§": 105,
      "¨": 106,
      "©": 107,
      "ª": 108,
      "«": 109,
      "¬": 110,
      "®": 111,
      "¯": 112,
      "°": 113,
      "±": 114,
      "²": 115,
      "³": 116,
      "´": 117,
      "µ": 118,
      "¶": 119,
      "·": 120,
      "¸": 121,
      "¹": 122,
      "º": 123,
      "»": 124,
      "¼": 125,
      "½": 126,
      "¾": 127,
      "¿": 128,
      "À": 129,
      "Á": 130,
      "Â": 131,
      "Ã": 132,
      "Ä": 133,
      "Å": 134,
      "Æ": 135,
      "Ç": 136,
      "È": 137,
      "É": 138,
      "Ê": 139,
      "Ë": 140,
      "Ì": 141,
      "Í": 142,
      "Î": 143,
      "Ï": 144,
      "Ð": 145,
      "Ñ": 146,
      "Ó": 147,
      "Ô": 148,
      "Ö": 149,
      "×": 150,
      "Ø": 151,
      "Ú": 152,
      "Ü": 153,
      "Þ": 154,
      "ß": 155,
      "à": 156,
      "á": 157,
      "â": 158,
      "ã": 159,
      "ä": 160,
      "å": 161,
      "æ": 162,
      "ç": 163,
      "è": 164,
      "é": 165,
      "ê": 166,
      "ë": 167,
      "ì": 168,
      "í": 169,
      "î": 170,
      "ï": 171,
      "ð": 172,
      "ñ": 173,
      "ò": 174,
      "ó": 175,
      "ô": 176,
      "õ": 177,
      "ö": 178,
      "÷": 179,
      "ø": 180,
      "ù": 181,
      "ú": 182,
      "û": 183,
      "ü": 184,
      "ý": 185,
      "þ": 186,
      "ÿ": 187,
      "Ā": 188,
      "ā": 189,
      "Ă": 190,
      "ă": 191,
      "Ą": 192,
      "ą": 193,
      "Ć": 194,
      "ć": 195,
      "Ĉ": 196,
      "ĉ": 197,
      "Ċ": 198,
      "ċ": 199,
      "Č": 200,
      "č": 201,
      "Ď": 202,
      "ď": 203,
      "Đ": 204,
      "đ": 205,
      "ē": 206,
      "ĕ": 207,
      "ė": 208,
      "ę": 209,
      "Ě": 210,
      "ě": 211,
      "ĝ": 212,
      "ğ": 213,
      "ġ": 214,
      "ħ": 215,
      "ĩ": 216,
      "ī": 217,
      "ĭ": 218,
      "İ": 219,
      "ı": 220,
      "ĳ": 221,
      "Ĺ": 222,
      "ĺ": 223,
      "ļ": 224,
      "Ľ": 225,
      "ľ": 226,
      "Ł": 227,
      "ł": 228,
      "ń": 229,
      "ņ": 230,
      "ň": 231,
      "ŋ": 232,
      "Ō": 233,
      "ō": 234,
      "ŏ": 235,
      "Ő": 236,
      "ő": 237,
      "Œ": 238,
      "œ": 239,
      "Ŕ": 240,
      "ŕ": 241,
      "Ř": 242,
      "ř": 243,
      "Ś": 244,
      "ś": 245,
      "ŝ": 246,
      "Ş": 247,
      "ş": 248,
      "Š": 249,
      "š": 250,
      "Ţ": 251,
      "ţ": 252,
      "Ť": 253,
      "ť": 254,
      "ū": 255,
      "ŭ": 256,
      "ů": 257,
      "ű": 258,
      "ų": 259,
      "Ÿ": 260,
      "Ź": 261,
      "ź": 262,
      "Ż": 263,
      "ż": 264,
      "Ž": 265,
      "ž": 266,
      "ſ": 267,
      "ƒ": 268,
      "Ɩ": 269,
      "ǌ": 270,
      "ǎ": 271,
      "ǐ": 272,
      "ǔ": 273,
      "ǝ": 274,
      "ǫ": 275,
      "ȁ": 276,
      "ȃ": 277,
      "ȅ": 278,
      "ȇ": 279,
      "ȉ": 280,
      "ȋ": 281,
      "ȍ": 282,
      "ȏ": 283,
      "ȕ": 284,
      "Ș": 285,
      "ș": 286,
      "Ț": 287,
      "ț": 288,
      "ɐ": 289,
      "ɑ": 290,
      "ɔ": 291,
      "ə": 292,
      "ɛ": 293,
      "ɡ": 294,
      "ɪ": 295,
      "ɹ": 296,
      "ɾ": 297,
      "ʁ": 298,
      "ʃ": 299,
      "ʊ": 300,
      "ʒ": 301,
      "ʲ": 302,
      "ʹ": 303,
      "ʺ": 304,
      "ʻ": 305,
      "ʼ": 306,
      "ʽ": 307,
      "ʾ": 308,
      "ʿ": 309,
      "˃": 310,
      "ˆ": 311,
      "ˇ": 312,
      "ˈ": 313,
      "ː": 314,
      "˗": 315,
      "˘": 316,
      "˙": 317,
      "˚": 318,
      "˛": 319,
      "˜": 320,
      "˝": 321,
      "ˮ": 322,
      "̀": 323,
      "́": 324,
      "̂": 325,
      "̃": 326,
      "̄": 327,
      "̈": 328,
      "̌": 329,
      "̏": 330,
      "̑": 331,
      "̓": 332,
      "̣": 333,
      "̧": 334,
      "̶": 335,
      ";": 336,
      "΄": 337,
      "Ά": 338,
      "Α": 339,
      "Β": 340,
      "Γ": 341,
      "Δ": 342,
      "Ε": 343,
      "Ζ": 344,
      "Η": 345,
      "Θ": 346,
      "Ι": 347,
      "Κ": 348,
      "Λ": 349,
      "Μ": 350,
      "Ν": 351,
      "Ξ": 352,
      "Ο": 353,
      "Π": 354,
      "Ρ": 355,
      "Σ": 356,
      "Τ": 357,
      "Υ": 358,
      "Φ": 359,
      "Χ": 360,
      "Ψ": 361,
      "Ω": 362,
      "ά": 363,
      "έ": 364,
      "ή": 365,
      "ί": 366,
      "ΰ": 367,
      "α": 368,
      "β": 369,
      "γ": 370,
      "δ": 371,
      "ε": 372,
      "ζ": 373,
      "η": 374,
      "θ": 375,
      "ι": 376,
      "κ": 377,
      "λ": 378,
      "μ": 379,
      "ν": 380,
      "ξ": 381,
      "ο": 382,
      "π": 383,
      "ρ": 384,
      "ς": 385,
      "σ": 386,
      "τ": 387,
      "υ": 388,
      "φ": 389,
      "χ": 390,
      "ψ": 391,
      "ω": 392,
      "ϋ": 393,
      "ό": 394,
      "ύ": 395,
      "ώ": 396,
      "ϑ": 397,
      "ϕ": 398,
      "ϰ": 399,
      "ϳ": 400,
      "ϵ": 401,
      "Ђ": 402,
      "Ѕ": 403,
      "І": 404,
      "Ј": 405,
      "Љ": 406,
      "Њ": 407,
      "Ћ": 408,
      "Ќ": 409,
      "Ў": 410,
      "Џ": 411,
      "А": 412,
      "Б": 413,
      "В": 414,
      "Г": 415,
      "Д": 416,
      "Е": 417,
      "Ж": 418,
      "З": 419,
      "И": 420,
      "Й": 421,
      "К": 422,
      "Л": 423,
      "М": 424,
      "Н": 425,
      "О": 426,
      "П": 427,
      "Р": 428,
      "С": 429,
      "Т": 430,
      "У": 431,
      "Ф": 432,
      "Х": 433,
      "Ц": 434,
      "Ч": 435,
      "Ш": 436,
      "Щ": 437,
      "Ъ": 438,
      "Ы": 439,
      "Ь": 440,
      "Э": 441,
      "Ю": 442,
      "Я": 443,
      "а": 444,
      "б": 445,
      "в": 446,
      "г": 447,
      "д": 448,
      "е": 449,
      "ж": 450,
      "з": 451,
      "и": 452,
      "й": 453,
      "к": 454,
      "л": 455,
      "м": 456,
      "н": 457,
      "о": 458,
      "п": 459,
      "р": 460,
      "с": 461,
      "т": 462,
      "у": 463,
      "ф": 464,
      "х": 465,
      "ц": 466,
      "ч": 467,
      "ш": 468,
      "щ": 469,
      "ъ": 470,
      "ы": 471,
      "ь": 472,
      "э": 473,
      "ю": 474,
      "я": 475,
      "ё": 476,
      "ђ": 477,
      "ѓ": 478,
      "є": 479,
      "ѕ": 480,
      "і": 481,
      "ї": 482,
      "ј": 483,
      "љ": 484,
      "њ": 485,
      "ћ": 486,
      "ќ": 487,
      "ў": 488,
      "џ": 489,
      "Ѣ": 490,
      "ѣ": 491,
      "ә": 492,
      "ԁ": 493,
      "Ա": 494,
      "Հ": 495,
      "ա": 496,
      "ե": 497,
      "ի": 498,
      "կ": 499,
      "մ": 500,
      "յ": 501,
      "ն": 502,
      "ո": 503,
      "ս": 504,
      "վ": 505,
      "տ": 506,
      "ր": 507,
      "ւ": 508,
      "ְ": 509,
      "ִ": 510,
      "ַ": 511,
      "ָ": 512,
      "ֹ": 513,
      "ּ": 514,
      "א": 515,
      "ב": 516,
      "ג": 517,
      "ד": 518,
      "ה": 519,
      "ו": 520,
      "ז": 521,
      "ח": 522,
      "ט": 523,
      "י": 524,
      "כ": 525,
      "ל": 526,
      "ם": 527,
      "מ": 528,
      "ן": 529,
      "נ": 530,
      "ס": 531,
      "ע": 532,
      "פ": 533,
      "צ": 534,
      "ק": 535,
      "ר": 536,
      "ש": 537,
      "ת": 538,
      "ء": 539,
      "آ": 540,
      "أ": 541,
      "إ": 542,
      "ئ": 543,
      "ا": 544,
      "ب": 545,
      "ة": 546,
      "ت": 547,
      "ث": 548,
      "ج": 549,
      "ح": 550,
      "خ": 551,
      "د": 552,
      "ذ": 553,
      "ر": 554,
      "ز": 555,
      "س": 556,
      "ش": 557,
      "ص": 558,
      "ض": 559,
      "ط": 560,
      "ظ": 561,
      "ع": 562,
      "غ": 563,
      "ـ": 564,
      "ف": 565,
      "ق": 566,
      "ك": 567,
      "ل": 568,
      "م": 569,
      "ن": 570,
      "ه": 571,
      "و": 572,
      "ى": 573,
      "ي": 574,
      "َ": 575,
      "ُ": 576,
      "ِ": 577,
      "ّ": 578,
      "ْ": 579,
      "پ": 580,
      "ک": 581,
      "گ": 582,
      "ی": 583,
      "क": 584,
      "त": 585,
      "द": 586,
      "न": 587,
      "म": 588,
      "य": 589,
      "र": 590,
      "ल": 591,
      "व": 592,
      "स": 593,
      "ा": 594,
      "ि": 595,
      "ी": 596,
      "्": 597,
      "া": 598,
      "น": 599,
      "ร": 600,
      "า": 601,
      "็": 602,
      "้": 603,
      "་": 604,
      "ა": 605,
      "ბ": 606,
      "ე": 607,
      "ვ": 608,
      "თ": 609,
      "ი": 610,
      "ლ": 611,
      "მ": 612,
      "ნ": 613,
      "ო": 614,
      "რ": 615,
      "ს": 616,
      "უ": 617,
      "ᴢ": 618,
      "ḍ": 619,
      "ḑ": 620,
      "Ḥ": 621,
      "ḥ": 622,
      "Ḩ": 623,
      "ḩ": 624,
      "ṃ": 625,
      "ṇ": 626,
      "ṛ": 627,
      "ṣ": 628,
      "ṭ": 629,
      "ạ": 630,
      "ế": 631,
      "ệ": 632,
      "ἀ": 633,
      "ἄ": 634,
      "Ἀ": 635,
      "ἐ": 636,
      "ἔ": 637,
      "Ἐ": 638,
      "ἡ": 639,
      "ἰ": 640,
      "Ἰ": 641,
      "ὁ": 642,
      "ὐ": 643,
      "ὰ": 644,
      "ὴ": 645,
      "ὶ": 646,
      "ὸ": 647,
      "᾿": 648,
      "ῆ": 649,
      "ῖ": 650,
      "ῦ": 651,
      "ῶ": 652,
      "‐": 653,
      "‑": 654,
      "‒": 655,
      "–": 656,
      "—": 657,
      "―": 658,
      "‖": 659,
      "‘": 660,
      "’": 661,
      "‚": 662,
      "‛": 663,
      "“": 664,
      "”": 665,
      "„": 666,
      "‟": 667,
      "†": 668,
      "‡": 669,
      "•": 670,
      "‣": 671,
      "…": 672,
      "‰": 673,
      "′": 674,
      "″": 675,
      "‹": 676,
      "›": 677,
      "‼": 678,
      "⁄": 679,
      "⁰": 680,
      "⁴": 681,
      "⁵": 682,
      "⁶": 683,
      "₂": 684,
      "₃": 685,
      "€": 686,
      "⃣": 687,
      "℃": 688,
      "ℏ": 689,
      "ℓ": 690,
      "№": 691,
      "™": 692,
      "Ω": 693,
      "←": 694,
      "↑": 695,
      "→": 696,
      "↓": 697,
      "↔": 698,
      "↗": 699,
      "↙": 700,
      "↩": 701,
      "↳": 702,
      "⇌": 703,
      "⇑": 704,
      "⇒": 705,
      "⇧": 706,
      "∀": 707,
      "∂": 708,
      "∅": 709,
      "∆": 710,
      "∇": 711,
      "∈": 712,
      "∑": 713,
      "−": 714,
      "∗": 715,
      "∘": 716,
      "∙": 717,
      "√": 718,
      "∞": 719,
      "∧": 720,
      "∩": 721,
      "∪": 722,
      "∫": 723,
      "∼": 724,
      "≈": 725,
      "≠": 726,
      "≡": 727,
      "≤": 728,
      "≥": 729,
      "⋅": 730,
      "⋆": 731,
      "⋯": 732,
      "〈": 733,
      "〉": 734,
      "─": 735,
      "│": 736,
      "└": 737,
      "═": 738,
      "╬": 739,
      "▀": 740,
      "▄": 741,
      "█": 742,
      "░": 743,
      "■": 744,
      "□": 745,
      "▪": 746,
      "▫": 747,
      "▬": 748,
      "▲": 749,
      "△": 750,
      "▶": 751,
      "▷": 752,
      "▸": 753,
      "▹": 754,
      "►": 755,
      "▼": 756,
      "◀": 757,
      "◄": 758,
      "◆": 759,
      "◇": 760,
      "◊": 761,
      "○": 762,
      "◎": 763,
      "●": 764,
      "◘": 765,
      "◦": 766,
      "◾": 767,
      "☀": 768,
      "★": 769,
      "☆": 770,
      "☎": 771,
      "☐": 772,
      "☕": 773,
      "☞": 774,
      "☦": 775,
      "☩": 776,
      "☺": 777,
      "☻": 778,
      "☼": 779,
      "♀": 780,
      "♂": 781,
      "♠": 782,
      "♡": 783,
      "♣": 784,
      "♥": 785,
      "♦": 786,
      "♪": 787,
      "♫": 788,
      "♬": 789,
      "♰": 790,
      "⚪": 791,
      "⚫": 792,
      "⚽": 793,
      "✅": 794,
      "✉": 795,
      "✊": 796,
      "✌": 797,
      "✎": 798,
      "✓": 799,
      "✔": 800,
      "✧": 801,
      "✨": 802,
      "✿": 803,
      "❄": 804,
      "❓": 805,
      "❗": 806,
      "❤": 807,
      "➇": 808,
      "➖": 809,
      "➜": 810,
      "➡": 811,
      "➢": 812,
      "➤": 813,
      "➥": 814,
      "➧": 815,
      "⟨": 816,
      "⟩": 817,
      "⟶": 818,
      "⠀": 819,
      "⦁": 820,
      "⬇": 821,
      "⭐": 822,
      "、": 823,
      "。": 824,
      "「": 825,
      "」": 826,
      "【": 827,
      "】": 828,
      "い": 829,
      "う": 830,
      "し": 831,
      "と": 832,
      "の": 833,
      "ん": 834,
      "ア": 835,
      "イ": 836,
      "ク": 837,
      "ス": 838,
      "タ": 839,
      "ッ": 840,
      "ト": 841,
      "ド": 842,
      "ラ": 843,
      "リ": 844,
      "ル": 845,
      "ロ": 846,
      "ン": 847,
      "・": 848,
      "ー": 849,
      "一": 850,
      "三": 851,
      "上": 852,
      "中": 853,
      "京": 854,
      "人": 855,
      "会": 856,
      "元": 857,
      "公": 858,
      "北": 859,
      "南": 860,
      "原": 861,
      "和": 862,
      "固": 863,
      "国": 864,
      "國": 865,
      "在": 866,
      "地": 867,
      "大": 868,
      "天": 869,
      "子": 870,
      "学": 871,
      "小": 872,
      "山": 873,
      "市": 874,
      "帝": 875,
      "平": 876,
      "年": 877,
      "忠": 878,
      "文": 879,
      "新": 880,
      "日": 881,
      "明": 882,
      "本": 883,
      "李": 884,
      "東": 885,
      "武": 886,
      "死": 887,
      "海": 888,
      "王": 889,
      "田": 890,
      "的": 891,
      "皇": 892,
      "知": 893,
      "義": 894,
      "藤": 895,
      "西": 896,
      "道": 897,
      "뀐": 898,
      "눇": 899,
      "눉": 900,
      "시": 901,
      "아": 902,
      "ﬁ": 903,
      "ﬂ": 904,
      "️": 905,
      "（": 906,
      "）": 907,
      "，": 908,
      "￼": 909,
      "🇪": 910,
      "🇭": 911,
      "🇷": 912,
      "🇸": 913,
      "🌞": 914,
      "🌟": 915,
      "🌸": 916,
      "🌹": 917,
      "🍀": 918,
      "🎁": 919,
      "🎄": 920,
      "🎈": 921,
      "🎉": 922,
      "🎵": 923,
      "🎶": 924,
      "🏆": 925,
      "🏻": 926,
      "🏼": 927,
      "🐑": 928,
      "👇": 929,
      "👉": 930,
      "👌": 931,
      "👍": 932,
      "👎": 933,
      "👏": 934,
      "👑": 935,
      "💋": 936,
      "💐": 937,
      "💓": 938,
      "💕": 939,
      "💖": 940,
      "💗": 941,
      "💙": 942,
      "💚": 943,
      "💛": 944,
      "💜": 945,
      "💞": 946,
      "💟": 947,
      "💩": 948,
      "💪": 949,
      "💫": 950,
      "📚": 951,
      "🔝": 952,
      "🔥": 953,
      "🔴": 954,
      "😀": 955,
      "😁": 956,
      "😂": 957,
      "😃": 958,
      "😄": 959,
      "😅": 960,
      "😆": 961,
      "😇": 962,
      "😈": 963,
      "😉": 964,
      "😊": 965,
      "😋": 966,
      "😍": 967,
      "😎": 968,
      "😏": 969,
      "😒": 970,
      "😔": 971,
      "😕": 972,
      "😘": 973,
      "😛": 974,
      "😜": 975,
      "😝": 976,
      "😞": 977,
      "😠": 978,
      "😡": 979,
      "😢": 980,
      "😣": 981,
      "😥": 982,
      "😦": 983,
      "😨": 984,
      "😬": 985,
      "😭": 986,
      "😮": 987,
      "😯": 988,
      "😱": 989,
      "😲": 990,
      "😳": 991,
      "🙁": 992,
      "🙂": 993,
      "🙄": 994,
      "🙈": 995,
      "🙋": 996,
      "🙌": 997,
      "🙏": 998,
      "🤓": 999,
      "🤔": 1000,
      "🤗": 1001,
      "🤣": 1002,
      "🤩": 1003,
      "🥰": 1004,
      "##e": 1005,
      "##b": 1006,
      "##ř": 1007,
      "##n": 1008,
      "##s": 1009,
      "##k": 1010,
      "##i": 1011,
      "##v": 1012,
      "##j": 1013,
      "##a": 1014,
      "##r": 1015,
      "##y": 1016,
      "##d": 1017,
      "##o": 1018,
      "##m": 1019,
      "##č": 1020,
      "##l": 1021,
      "##u": 1022,
      "##p": 1023,
      "##t": 1024,
      "##h": 1025,
      "##c": 1026,
      "##z": 1027,
      "##ö": 1028,
      "##g": 1029,
      "##ó": 1030,
      "##ć": 1031,
      "##x": 1032,
      "##I": 1033,
      "##N": 1034,
      "##Đ": 1035,
      "##Ć": 1036,
      "##E": 1037,
      "##V": 1038,
      "##˝": 1039,
      "##M": 1040,
      "##T": 1041,
      "##š": 1042,
      "##R": 1043,
      "##K": 1044,
      "##q": 1045,
      "##f": 1046,
      "##G": 1047,
      "##B": 1048,
      "##2": 1049,
      "##¹": 1050,
      "##7": 1051,
      "##1": 1052,
      "##0": 1053,
      "##9": 1054,
      "##4": 1055,
      "##5": 1056,
      "##ž": 1057,
      "##😔": 1058,
      "##́": 1059,
      "##8": 1060,
      "##е": 1061,
      "##п": 1062,
      "##у": 1063,
      "##6": 1064,
      "##D": 1065,
      "##A": 1066,
      "##J": 1067,
      "##Š": 1068,
      "##đ": 1069,
      "##3": 1070,
      "##S": 1071,
      "##O": 1072,
      "##F": 1073,
      "##L": 1074,
      "##w": 1075,
      "##X": 1076,
      "##C": 1077,
      "##¨": 1078,
      "##Ž": 1079,
      "##U": 1080,
      "##л": 1081,
      "##о": 1082,
      "##ј": 1083,
      "##а": 1084,
      "##н": 1085,
      "##P": 1086,
      "##à": 1087,
      "##ρ": 1088,
      "##ο": 1089,
      "##ν": 1090,
      "##ι": 1091,
      "##κ": 1092,
      "##ὰ": 1093,
      "##˘": 1094,
      "##р": 1095,
      "##с": 1096,
      "##Ö": 1097,
      "##ь": 1098,
      "##ă": 1099,
      "##з": 1100,
      "##ý": 1101,
      "##и": 1102,
      "##м": 1103,
      "##ā": 1104,
      "##в": 1105,
      "##ц": 1106,
      "##т": 1107,
      "##ł": 1108,
      "##г": 1109,
      "##Z": 1110,
      "##д": 1111,
      "##ћ": 1112,
      "##ĳ": 1113,
      "##ð": 1114,
      "##Y": 1115,
      "##к": 1116,
      "##х": 1117,
      "##ä": 1118,
      "##া": 1119,
      "##æ": 1120,
      "##H": 1121,
      "##ф": 1122,
      "##ч": 1123,
      "##υ": 1124,
      "##â": 1125,
      "##ţ": 1126,
      "##α": 1127,
      "##χ": 1128,
      "##ί": 1129,
      "##ς": 1130,
      "##ѓ": 1131,
      "##б": 1132,
      "##®": 1133,
      "##W": 1134,
      "##ќ": 1135,
      "##é": 1136,
      "##Ă": 1137,
      "##ˮ": 1138,
      "##Č": 1139,
      "##љ": 1140,
      "##њ": 1141,
      "##Ã": 1142,
      "##Å": 1143,
      "##¾": 1144,
      "##ì": 1145,
      "##ϳ": 1146,
      "##ū": 1147,
      "##♥": 1148,
      "##å": 1149,
      "##Ä": 1150,
      "##έ": 1151,
      "##λ": 1152,
      "##σ": 1153,
      "##Q": 1154,
      "##è": 1155,
      "##ђ": 1156,
      "##Ā": 1157,
      "##А": 1158,
      "##В": 1159,
      "##Л": 1160,
      "##Д": 1161,
      "##Ш": 1162,
      "##˙": 1163,
      "##−": 1164,
      "##ē": 1165,
      "##ã": 1166,
      "##ḍ": 1167,
      "##ś": 1168,
      "##π": 1169,
      "##ό": 1170,
      "##ш": 1171,
      "##™": 1172,
      "##Æ": 1173,
      "##я": 1174,
      "##щ": 1175,
      "##ύ": 1176,
      "##β": 1177,
      "##á": 1178,
      "##ō": 1179,
      "##í": 1180,
      "##ť": 1181,
      "##Â": 1182,
      "##Ť": 1183,
      "##ç": 1184,
      "##É": 1185,
      "##∆": 1186,
      "##¬": 1187,
      "##ъ": 1188,
      "##ț": 1189,
      "##È": 1190,
      "##×": 1191,
      "##ī": 1192,
      "##ĉ": 1193,
      "##ˇ": 1194,
      "##ن": 1195,
      "##Ĺ": 1196,
      "##ľ": 1197,
      "##̌": 1198,
      "##Ą": 1199,
      "##י": 1200,
      "##ה": 1201,
      "##ו": 1202,
      "##ċ": 1203,
      "##ß": 1204,
      "##ŭ": 1205,
      "##°": 1206,
      "##€": 1207,
      "##ﬁ": 1208,
      "##î": 1209,
      "##ˈ": 1210,
      "##ɪ": 1211,
      "##😀": 1212,
      "##Ð": 1213,
      "##ü": 1214,
      "##й": 1215,
      "##ʒ": 1216,
      "##ː": 1217,
      "##І": 1218,
      "##ʼ": 1219,
      "##ю": 1220,
      "##ḥ": 1221,
      "##ě": 1222,
      "##😅": 1223,
      "##ʹ": 1224,
      "##ę": 1225,
      "##ж": 1226,
      "##ů": 1227,
      "##ż": 1228,
      "##→": 1229,
      "##θ": 1230,
      "##μ": 1231,
      "##ω": 1232,
      "##ø": 1233,
      "##ɛ": 1234,
      "##¦": 1235,
      "##ș": 1236,
      "##η": 1237,
      "##ή": 1238,
      "##Ë": 1239,
      "##Ú": 1240,
      "##γ": 1241,
      "##τ": 1242,
      "##ώ": 1243,
      "##ζ": 1244,
      "##ε": 1245,
      "##ʺ": 1246,
      "##Œ": 1247,
      "##ğ": 1248,
      "##☆": 1249,
      "##ȅ": 1250,
      "##ə": 1251,
      "##و": 1252,
      "##گ": 1253,
      "##ر": 1254,
      "##ی": 1255,
      "##ɹ": 1256,
      "##℃": 1257,
      "##С": 1258,
      "##Е": 1259,
      "##э": 1260,
      "##ń": 1261,
      "##ı": 1262,
      "##ә": 1263,
      "##ئ": 1264,
      "##ز": 1265,
      "##ه": 1266,
      "##ا": 1267,
      "##ّ": 1268,
      "##َ": 1269,
      "##ُ": 1270,
      "##ɾ": 1271,
      "##ĩ": 1272,
      "##̃": 1273,
      "##ɐ": 1274,
      "##ň": 1275,
      "##ي": 1276,
      "##س": 1277,
      "##ة": 1278,
      "##ξ": 1279,
      "##´": 1280,
      "##ʃ": 1281,
      "##þ": 1282,
      "##ы": 1283,
      "##²": 1284,
      "##Ŕ": 1285,
      "##φ": 1286,
      "##Ĉ": 1287,
      "##ë": 1288,
      "##ד": 1289,
      "##ש": 1290,
      "##ת": 1291,
      "##ب": 1292,
      "##ş": 1293,
      "##Ç": 1294,
      "##⁰": 1295,
      "##û": 1296,
      "##¸": 1297,
      "##ò": 1298,
      "##✌": 1299,
      "##️": 1300,
      "##ù": 1301,
      "##ḩ": 1302,
      "##─": 1303,
      "##ѕ": 1304,
      "##★": 1305,
      "##Р": 1306,
      "##О": 1307,
      "##Ј": 1308,
      "##К": 1309,
      "##Т": 1310,
      "##🇷": 1311,
      "##🇪": 1312,
      "##🇸": 1313,
      "##ր": 1314,
      "##ա": 1315,
      "##ն": 1316,
      "##ս": 1317,
      "##ի": 1318,
      "##յ": 1319,
      "##¢": 1320,
      "##🌹": 1321,
      "##Ċ": 1322,
      "##º": 1323,
      "##￼": 1324,
      "##∙": 1325,
      "##ő": 1326,
      "##ل": 1327,
      "##ح": 1328,
      "##ْ": 1329,
      "##م": 1330,
      "##ñ": 1331,
      "##ſ": 1332,
      "##ṭ": 1333,
      "##Ï": 1334,
      "##ú": 1335,
      "##і": 1336,
      "##ї": 1337,
      "##Б": 1338,
      "##Ó": 1339,
      "##ű": 1340,
      "##ĺ": 1341,
      "##ت": 1342,
      "##И": 1343,
      "##П": 1344,
      "##Н": 1345,
      "##ِ": 1346,
      "##ق": 1347,
      "##ك": 1348,
      "##👑": 1349,
      "##џ": 1350,
      "##Ê": 1351,
      "##ά": 1352,
      "##😉": 1353,
      "##त": 1354,
      "##्": 1355,
      "##य": 1356,
      "##क": 1357,
      "##ा": 1358,
      "##±": 1359,
      "##˚": 1360,
      "##ˆ": 1361,
      "##ɔ": 1362,
      "##ʊ": 1363,
      "##ʁ": 1364,
      "##̈": 1365,
      "##Ø": 1366,
      "##ṣ": 1367,
      "##ȉ": 1368,
      "##🎵": 1369,
      "##ک": 1370,
      "##╬": 1371,
      "##ѣ": 1372,
      "##ȁ": 1373,
      "##У": 1374,
      "##🤔": 1375,
      "##œ": 1376,
      "##स": 1377,
      "##ि": 1378,
      "##ļ": 1379,
      "##З": 1380,
      "##💋": 1381,
      "##ش": 1382,
      "##ف": 1383,
      "##ô": 1384,
      "##М": 1385,
      "##♪": 1386,
      "##Ď": 1387,
      "##د": 1388,
      "##ث": 1389,
      "##̏": 1390,
      "##√": 1391,
      "##द": 1392,
      "##न": 1393,
      "##Ε": 1394,
      "##Τ": 1395,
      "##Α": 1396,
      "##Μ": 1397,
      "##Λ": 1398,
      "##Η": 1399,
      "##Θ": 1400,
      "##ὶ": 1401,
      "##Σ": 1402,
      "##◊": 1403,
      "##►": 1404,
      "##ȃ": 1405,
      "##ר": 1406,
      "##ב": 1407,
      "##ע": 1408,
      "##מ": 1409,
      "##õ": 1410,
      "##ʾ": 1411,
      "##ὐ": 1412,
      "##δ": 1413,
      "##Î": 1414,
      "##◆": 1415,
      "##Δ": 1416,
      "##Ι": 1417,
      "##Π": 1418,
      "##義": 1419,
      "##ط": 1420,
      "##北": 1421,
      "##⟶": 1422,
      "##❤": 1423,
      "##아": 1424,
      "##Ś": 1425,
      "##˜": 1426,
      "##ď": 1427,
      "##¤": 1428,
      "##Ω": 1429,
      "##Ц": 1430,
      "##Г": 1431,
      "##ё": 1432,
      "##ħ": 1433,
      "##ź": 1434,
      "##■": 1435,
      "##ǐ": 1436,
      "##آ": 1437,
      "##ء": 1438,
      "##ê": 1439,
      "##年": 1440,
      "##ス": 1441,
      "##ル": 1442,
      "##Ż": 1443,
      "##ـ": 1444,
      "##ლ": 1445,
      "##ა": 1446,
      "##ნ": 1447,
      "##ი": 1448,
      "##ს": 1449,
      "##🌞": 1450,
      "##新": 1451,
      "##🤗": 1452,
      "##☺": 1453,
      "##̧": 1454,
      "##Ü": 1455,
      "##ン": 1456,
      "##ー": 1457,
      "##🌸": 1458,
      "##💞": 1459,
      "##❄": 1460,
      "##🎄": 1461,
      "##🎁": 1462,
      "##̀": 1463,
      "##ո": 1464,
      "##ւ": 1465,
      "##տ": 1466,
      "##ą": 1467,
      "##Ѣ": 1468,
      "##💓": 1469,
      "##Á": 1470,
      "##ん": 1471,
      "##う": 1472,
      "##ʻ": 1473,
      "##ï": 1474,
      "##є": 1475,
      "##◦": 1476,
      "##😄": 1477,
      "##ạ": 1478,
      "##إ": 1479,
      "##ج": 1480,
      "##山": 1481,
      "##大": 1482,
      "##🤣": 1483,
      "##ḑ": 1484,
      "##ع": 1485,
      "##µ": 1486,
      "##本": 1487,
      "##田": 1488,
      "##ϵ": 1489,
      "##ŕ": 1490,
      "##ɑ": 1491,
      "##Э": 1492,
      "##ְ": 1493,
      "##כ": 1494,
      "##ִ": 1495,
      "##נ": 1496,
      "##ָ": 1497,
      "##̄": 1498,
      "##リ": 1499,
      "##ト": 1500,
      "##天": 1501,
      "##皇": 1502,
      "##ロ": 1503,
      "##ク": 1504,
      "##ª": 1505,
      "##ס": 1506,
      "##ן": 1507,
      "##Ÿ": 1508,
      "##ĕ": 1509,
      "##Ж": 1510,
      "##Ћ": 1511,
      "##ظ": 1512,
      "##ى": 1513,
      "##Ł": 1514,
      "##ǌ": 1515,
      "##ϕ": 1516,
      "##ȏ": 1517,
      "##ŏ": 1518,
      "##😣": 1519,
      "##א": 1520,
      "##🏼": 1521,
      "##غ": 1522,
      "##😂": 1523,
      "##Њ": 1524,
      "##ƒ": 1525,
      "##明": 1526,
      "##王": 1527,
      "##●": 1528,
      "##😎": 1529,
      "##ド": 1530,
      "##タ": 1531,
      "##中": 1532,
      "##の": 1533,
      "##会": 1534,
      "##Ω": 1535,
      "##Ş": 1536,
      "##ψ": 1537,
      "##Ф": 1538,
      "##武": 1539,
      "##🏆": 1540,
      "##©": 1541,
      "##😊": 1542,
      "##ם": 1543,
      "##ذ": 1544,
      "##ῖ": 1545,
      "##😜": 1546,
      "##र": 1547,
      "##🥰": 1548,
      "##خ": 1549,
      "##南": 1550,
      "##Ъ": 1551,
      "##פ": 1552,
      "##♣": 1553,
      "##京": 1554,
      "##ė": 1555,
      "##ל": 1556,
      "##Φ": 1557,
      "##Ρ": 1558,
      "##👉": 1559,
      "##😁": 1560,
      "##ض": 1561,
      "##£": 1562,
      "##ĝ": 1563,
      "##ņ": 1564,
      "##İ": 1565,
      "##ッ": 1566,
      "##ȍ": 1567,
      "##ȇ": 1568,
      "##👌": 1569,
      "##🏻": 1570,
      "##Þ": 1571,
      "##Ќ": 1572,
      "##้": 1573,
      "##ŋ": 1574,
      "##ἰ": 1575,
      "##ṛ": 1576,
      "##ϑ": 1577,
      "##Ь": 1578,
      "##³": 1579,
      "##🙌": 1580,
      "##ῶ": 1581,
      "##道": 1582,
      "##ص": 1583,
      "##⋅": 1584,
      "##ṃ": 1585,
      "##原": 1586,
      "##💕": 1587,
      "##子": 1588,
      "##ȕ": 1589,
      "##ी": 1590,
      "##↔": 1591,
      "##ﬂ": 1592,
      "##Ľ": 1593,
      "##Й": 1594,
      "##Я": 1595,
      "##̓": 1596,
      "##Υ": 1597,
      "##💪": 1598,
      "##💛": 1599,
      "##░": 1600,
      "##⬇": 1601,
      "##ῦ": 1602,
      "##日": 1603,
      "##̣": 1604,
      "##Ђ": 1605,
      "##⁶": 1606,
      "##文": 1607,
      "##😍": 1608,
      "##○": 1609,
      "##🤩": 1610,
      "##◄": 1611,
      "##█": 1612,
      "##⁴": 1613,
      "##💜": 1614,
      "##մ": 1615,
      "##Í": 1616,
      "##市": 1617,
      "##¼": 1618,
      "##ǔ": 1619,
      "##ג": 1620,
      "##ט": 1621,
      "##公": 1622,
      "##😡": 1623,
      "##♂": 1624,
      "##₃": 1625,
      "##💫": 1626,
      "##✨": 1627,
      "##🇭": 1628,
      "##🙏": 1629,
      "##平": 1630,
      "##ǎ": 1631,
      "##Ô": 1632,
      "##ϰ": 1633,
      "##☞": 1634,
      "##↓": 1635,
      "##ե": 1636,
      "##イ": 1637,
      "##😘": 1638,
      "##ệ": 1639,
      "##ῆ": 1640,
      "##̑": 1641,
      "##👏": 1642,
      "##一": 1643,
      "##♡": 1644,
      "##կ": 1645,
      "##∞": 1646,
      "##Ў": 1647,
      "##帝": 1648,
      "##い": 1649,
      "##ų": 1650,
      "##📚": 1651,
      "##💚": 1652,
      "##ǝ": 1653,
      "##😬": 1654,
      "##ח": 1655,
      "##ק": 1656,
      "##ÿ": 1657,
      "##✔": 1658,
      "##😋": 1659,
      "##ַ": 1660,
      "##ּ": 1661,
      "##😆": 1662,
      "##ў": 1663,
      "##Ч": 1664,
      "##أ": 1665,
      "##Ì": 1666,
      "##↑": 1667,
      "##ო": 1668,
      "##რ": 1669,
      "##Ю": 1670,
      "##ἐ": 1671,
      "##💖": 1672,
      "##😇": 1673,
      "##🌟": 1674,
      "##國": 1675,
      "##◀": 1676,
      "##ϋ": 1677,
      "##Ά": 1678,
      "##Γ": 1679,
      "##վ": 1680,
      "##🙈": 1681,
      "##Ř": 1682,
      "##⁵": 1683,
      "##ე": 1684,
      "##ბ": 1685,
      "##的": 1686,
      "##ʲ": 1687,
      "##😭": 1688,
      "##☻": 1689,
      "##ȋ": 1690,
      "##👍": 1691,
      "##∩": 1692,
      "##⁄": 1693,
      "##❗": 1694,
      "##म": 1695,
      "##᾿": 1696,
      "##ვ": 1697,
      "##თ": 1698,
      "##მ": 1699,
      "##Ѕ": 1700,
      "##Х": 1701,
      "##า": 1702,
      "##海": 1703,
      "##½": 1704,
      "##♀": 1705,
      "##Κ": 1706,
      "##Ο": 1707,
      "##Љ": 1708,
      "##ɡ": 1709,
      "##🎈": 1710,
      "##व": 1711,
      "##西": 1712,
      "##👎": 1713,
      "##😏": 1714,
      "##🔥": 1715,
      "##し": 1716,
      "##と": 1717,
      "##忠": 1718,
      "##Ñ": 1719,
      "##▼": 1720,
      "##˛": 1721,
      "##⚪": 1722,
      "##🎶": 1723,
      "##ĭ": 1724,
      "##ŝ": 1725,
      "##💙": 1726,
      "##♦": 1727,
      "##🍀": 1728,
      "##🙄": 1729,
      "##➡": 1730,
      "##̂": 1731,
      "##¥": 1732,
      "##✎": 1733,
      "##Ţ": 1734,
      "##│": 1735,
      "##😃": 1736,
      "##人": 1737,
      "##ὸ": 1738,
      "##ṇ": 1739,
      "##Ź": 1740,
      "##☼": 1741,
      "##👇": 1742,
      "##Ő": 1743,
      "##≡": 1744,
      "##⃣": 1745,
      "##₂": 1746,
      "##∫": 1747,
      "##上": 1748,
      "##≠": 1749,
      "##Щ": 1750,
      "##☎": 1751,
      "##Ν": 1752,
      "##⋯": 1753,
      "##♫": 1754,
      "##国": 1755,
      "##ὴ": 1756,
      "##Ы": 1757,
      "##元": 1758,
      "##÷": 1759,
      "##΄": 1760,
      "##✿": 1761,
      "##ế": 1762,
      "##💗": 1763,
      "##学": 1764,
      "##Ɩ": 1765,
      "##À": 1766,
      "##🎉": 1767,
      "##시": 1768,
      "##ǫ": 1769,
      "##🙁": 1770,
      "##∂": 1771,
      "##ʿ": 1772,
      "##↩": 1773,
      "##➥": 1774,
      "##⚽": 1775,
      "##№": 1776,
      "##Χ": 1777,
      "##ז": 1778,
      "##≤": 1779,
      "##地": 1780,
      "##✊": 1781,
      "##ΰ": 1782,
      "##ร": 1783,
      "##پ": 1784,
      "##ア": 1785,
      "##🙂": 1786,
      "##😞": 1787,
      "##🔝": 1788,
      "##Β": 1789,
      "##≥": 1790,
      "##ġ": 1791,
      "##̶": 1792,
      "##¯": 1793,
      "##น": 1794,
      "##ֹ": 1795,
      "##უ": 1796,
      "##↗": 1797,
      "##≈": 1798,
      "##😝": 1799,
      "##和": 1800,
      "##▪": 1801,
      "##藤": 1802,
      "##😛": 1803,
      "##🙋": 1804,
      "##ラ": 1805,
      "##ℓ": 1806,
      "##◾": 1807,
      "##三": 1808,
      "##知": 1809,
      "##在": 1810,
      "##小": 1811,
      "##😢": 1812,
      "##☕": 1813,
      "##😮": 1814,
      "##ἀ": 1815,
      "##Ա": 1816,
      "##Ξ": 1817,
      "##ल": 1818,
      "##Џ": 1819,
      "##😳": 1820,
      "##💐": 1821,
      "##▶": 1822,
      "##✓": 1823,
      "##צ": 1824,
      "##李": 1825,
      "##😲": 1826,
      "##🔴": 1827,
      "##Ě": 1828,
      "##⚫": 1829,
      "##˗": 1830,
      "##♠": 1831,
      "##∼": 1832,
      "##固": 1833,
      "##∗": 1834,
      "##✅": 1835,
      "##ʽ": 1836,
      "##🐑": 1837,
      "##東": 1838,
      "##😱": 1839,
      "##☀": 1840,
      "##😦": 1841,
      "##😠": 1842,
      "##←": 1843,
      "##⭐": 1844,
      "##💩": 1845,
      "##ԁ": 1846,
      "##➤": 1847,
      "##∪": 1848,
      "##☦": 1849,
      "##➢": 1850,
      "##❓": 1851,
      "##˃": 1852,
      "##∈": 1853,
      "##═": 1854,
      "##死": 1855,
      "##⇒": 1856,
      "##⠀": 1857,
      "##😕": 1858,
      "##💟": 1859,
      "##♬": 1860,
      "##😒": 1861,
      "##▬": 1862,
      "##Ζ": 1863,
      "##▄": 1864,
      "##☐": 1865,
      "##😥": 1866,
      "##∅": 1867,
      "##▫": 1868,
      "##😯": 1869,
      "##🤓": 1870,
      "##็": 1871,
      "##😈": 1872,
      "##◎": 1873,
      "##∧": 1874,
      "##∑": 1875,
      "##▸": 1876,
      "##ᴢ": 1877,
      "##∀": 1878,
      "##□": 1879,
      "##▀": 1880,
      "##Հ": 1881,
      "##▲": 1882,
      "##➖": 1883,
      "##Ș": 1884,
      "##∘": 1885,
      "##△": 1886,
      "##ℏ": 1887,
      "##😨": 1888,
      "##✧": 1889,
      "##◇": 1890,
      "##◘": 1891,
      "##ἡ": 1892,
      "##ὁ": 1893,
      "##Ψ": 1894,
      "##Ḥ": 1895,
      "##↙": 1896,
      "##Ț": 1897,
      "##Ō": 1898,
      "##⋆": 1899,
      "##✉": 1900,
      "##Ἰ": 1901,
      "##ἄ": 1902,
      "##➜": 1903,
      "##▷": 1904,
      "##Ἀ": 1905,
      "##ἔ": 1906,
      "##♰": 1907,
      "##Ἐ": 1908,
      "##└": 1909,
      "##∇": 1910,
      "##⦁": 1911,
      "##⇑": 1912,
      "##je": 1913,
      "##ra": 1914,
      "##ni": 1915,
      "##ti": 1916,
      "##no": 1917,
      "##li": 1918,
      "##va": 1919,
      "##re": 1920,
      "##ta": 1921,
      "##na": 1922,
      "##ja": 1923,
      "##ri": 1924,
      "##ko": 1925,
      "na": 1926,
      "je": 1927,
      "po": 1928,
      "##la": 1929,
      "##ma": 1930,
      "##ro": 1931,
      "##vo": 1932,
      "##vi": 1933,
      "##te": 1934,
      "ko": 1935,
      "##ne": 1936,
      "za": 1937,
      "##to": 1938,
      "##ka": 1939,
      "##ju": 1940,
      "##ji": 1941,
      "##di": 1942,
      "##ci": 1943,
      "da": 1944,
      "##da": 1945,
      "##ve": 1946,
      "##lo": 1947,
      "se": 1948,
      "ne": 1949,
      "sa": 1950,
      "##st": 1951,
      "##le": 1952,
      "do": 1953,
      "od": 1954,
      "##mo": 1955,
      "##nje": 1956,
      "##me": 1957,
      "##ru": 1958,
      "ka": 1959,
      "su": 1960,
      "##ki": 1961,
      "##sta": 1962,
      "##ije": 1963,
      "pro": 1964,
      "iz": 1965,
      "##sti": 1966,
      "##ke": 1967,
      "bi": 1968,
      "ra": 1969,
      "##nu": 1970,
      "##ku": 1971,
      "##go": 1972,
      "##de": 1973,
      "pri": 1974,
      "##nja": 1975,
      "pre": 1976,
      "##ga": 1977,
      "mo": 1978,
      "##zi": 1979,
      "##is": 1980,
      "##po": 1981,
      "##ca": 1982,
      "##lje": 1983,
      "##či": 1984,
      "##tu": 1985,
      "##ba": 1986,
      "##ce": 1987,
      "##lu": 1988,
      "##bi": 1989,
      "to": 1990,
      "te": 1991,
      "##pa": 1992,
      "##če": 1993,
      "go": 1994,
      "##že": 1995,
      "##mi": 1996,
      "##za": 1997,
      "##bo": 1998,
      "##si": 1999,
      "##sko": 2000,
      "##še": 2001,
      "re": 2002,
      "##ći": 2003,
      "koji": 2004,
      "##lja": 2005,
      "##će": 2006,
      "##ski": 2007,
      "##se": 2008,
      "##do": 2009,
      "##du": 2010,
      "##gu": 2011,
      "##sto": 2012,
      "ve": 2013,
      "##ča": 2014,
      "##nih": 2015,
      "ma": 2016,
      "##ža": 2017,
      "##nog": 2018,
      "pa": 2019,
      "##ća": 2020,
      "##nom": 2021,
      "ta": 2022,
      "st": 2023,
      "##sa": 2024,
      "će": 2025,
      "##gra": 2026,
      "##ži": 2027,
      "me": 2028,
      "ob": 2029,
      "no": 2030,
      "20": 2031,
      "godi": 2032,
      "mi": 2033,
      "##nim": 2034,
      "vi": 2035,
      "##be": 2036,
      "##cija": 2037,
      "##pu": 2038,
      "in": 2039,
      "##đe": 2040,
      "Na": 2041,
      "##pe": 2042,
      "##pi": 2043,
      "##ša": 2044,
      "##or": 2045,
      "##nju": 2046,
      "##lji": 2047,
      "##gi": 2048,
      "raz": 2049,
      "##vje": 2050,
      "##ze": 2051,
      "##vu": 2052,
      "sve": 2053,
      "sta": 2054,
      "##ske": 2055,
      "što": 2056,
      "##lj": 2057,
      "svo": 2058,
      "##so": 2059,
      "Po": 2060,
      "##dni": 2061,
      "##nji": 2062,
      "##ši": 2063,
      "##vr": 2064,
      "##cije": 2065,
      "ima": 2066,
      "koje": 2067,
      "kao": 2068,
      "dru": 2069,
      "va": 2070,
      "de": 2071,
      "ni": 2072,
      "bo": 2073,
      "##nosti": 2074,
      "##rije": 2075,
      "li": 2076,
      "##ge": 2077,
      "##rva": 2078,
      "Za": 2079,
      "pos": 2080,
      "##om": 2081,
      "ili": 2082,
      "vo": 2083,
      "pra": 2084,
      "pu": 2085,
      "ja": 2086,
      "##rža": 2087,
      "ku": 2088,
      "##kom": 2089,
      "##lju": 2090,
      "naj": 2091,
      "##dno": 2092,
      "tre": 2093,
      "si": 2094,
      "kako": 2095,
      "pred": 2096,
      "is": 2097,
      "##mu": 2098,
      "##mje": 2099,
      "##vije": 2100,
      "zna": 2101,
      "nije": 2102,
      "##ho": 2103,
      "##stav": 2104,
      "##pra": 2105,
      "Ka": 2106,
      "##dje": 2107,
      "##tiv": 2108,
      "Ma": 2109,
      "##su": 2110,
      "##sni": 2111,
      "##ran": 2112,
      "pot": 2113,
      "##red": 2114,
      "di": 2115,
      "##ska": 2116,
      "##vanje": 2117,
      "gra": 2118,
      "nje": 2119,
      "##cu": 2120,
      "##rvat": 2121,
      "samo": 2122,
      "sam": 2123,
      "pod": 2124,
      "ba": 2125,
      "##nt": 2126,
      "##stu": 2127,
      "ti": 2128,
      "ali": 2129,
      "201": 2130,
      "##đu": 2131,
      "##zo": 2132,
      "godine": 2133,
      "##zu": 2134,
      "##nta": 2135,
      "be": 2136,
      "može": 2137,
      "us": 2138,
      "##đa": 2139,
      "##sno": 2140,
      "##zna": 2141,
      "##liko": 2142,
      "stra": 2143,
      "Sa": 2144,
      "##tni": 2145,
      "##skog": 2146,
      "##bu": 2147,
      "lju": 2148,
      "##šta": 2149,
      "##ha": 2150,
      "##čki": 2151,
      "koja": 2152,
      "##gle": 2153,
      "##pre": 2154,
      "dana": 2155,
      "Ko": 2156,
      "##oj": 2157,
      "ži": 2158,
      "##govo": 2159,
      "kori": 2160,
      "##nost": 2161,
      "##šte": 2162,
      "če": 2163,
      "##isa": 2164,
      "##vanja": 2165,
      "Ne": 2166,
      "ovo": 2167,
      "##er": 2168,
      "svi": 2169,
      "##fi": 2170,
      "##kon": 2171,
      "Mi": 2172,
      "mje": 2173,
      "pr": 2174,
      "dje": 2175,
      "biti": 2176,
      "##vni": 2177,
      "##ona": 2178,
      "pla": 2179,
      "mogu": 2180,
      "že": 2181,
      "19": 2182,
      "mu": 2183,
      "Da": 2184,
      "##ču": 2185,
      "##sje": 2186,
      "##00": 2187,
      "##vić": 2188,
      "##tra": 2189,
      "fi": 2190,
      "##vno": 2191,
      "sva": 2192,
      "či": 2193,
      "##šti": 2194,
      "tako": 2195,
      "ga": 2196,
      "nji": 2197,
      "du": 2198,
      "pi": 2199,
      "jed": 2200,
      "više": 2201,
      "tu": 2202,
      "##oš": 2203,
      "##rija": 2204,
      "##rt": 2205,
      "##nti": 2206,
      "##rati": 2207,
      "##nije": 2208,
      "##nici": 2209,
      "##nica": 2210,
      "bu": 2211,
      "##ću": 2212,
      "##ste": 2213,
      "Hrvat": 2214,
      "##stva": 2215,
      "##skih": 2216,
      "ot": 2217,
      "##tno": 2218,
      "jer": 2219,
      "Bo": 2220,
      "pe": 2221,
      "##nda": 2222,
      "##vati": 2223,
      "treba": 2224,
      "tra": 2225,
      "uz": 2226,
      "##nika": 2227,
      "ro": 2228,
      "Me": 2229,
      "smo": 2230,
      "##dan": 2231,
      "gla": 2232,
      "##št": 2233,
      "##fe": 2234,
      "##stvo": 2235,
      "Mo": 2236,
      "kon": 2237,
      "op": 2238,
      "radi": 2239,
      "Sr": 2240,
      "slu": 2241,
      "##tak": 2242,
      "##ciju": 2243,
      "ru": 2244,
      "##vali": 2245,
      "spo": 2246,
      "bro": 2247,
      "##reme": 2248,
      "vr": 2249,
      "osta": 2250,
      "##čko": 2251,
      "kra": 2252,
      "ce": 2253,
      "Re": 2254,
      "##skom": 2255,
      "Bi": 2256,
      "Do": 2257,
      "prije": 2258,
      "Pa": 2259,
      "##gla": 2260,
      "bio": 2261,
      "##skoj": 2262,
      "vla": 2263,
      "##vlja": 2264,
      "##bra": 2265,
      "još": 2266,
      "##he": 2267,
      "##čno": 2268,
      "Ra": 2269,
      "##zvo": 2270,
      "poli": 2271,
      "##ter": 2272,
      "lo": 2273,
      "##gre": 2274,
      "sto": 2275,
      "bilo": 2276,
      "##stra": 2277,
      "##dra": 2278,
      "or": 2279,
      "oso": 2280,
      "##bro": 2281,
      "ze": 2282,
      "##spo": 2283,
      "##što": 2284,
      "živo": 2285,
      "##for": 2286,
      "##on": 2287,
      "##rno": 2288,
      "##isu": 2289,
      "##mije": 2290,
      "##lno": 2291,
      "##vima": 2292,
      "##tor": 2293,
      "##nice": 2294,
      "##bog": 2295,
      "##kla": 2296,
      "##sku": 2297,
      "##ako": 2298,
      "već": 2299,
      "godina": 2300,
      "##hi": 2301,
      "ova": 2302,
      "##tje": 2303,
      "nas": 2304,
      "##vom": 2305,
      "##rom": 2306,
      "bez": 2307,
      "Ba": 2308,
      "##čke": 2309,
      "vje": 2310,
      "To": 2311,
      "drža": 2312,
      "vrije": 2313,
      "##vara": 2314,
      "##lan": 2315,
      "veli": 2316,
      "mora": 2317,
      "No": 2318,
      "##vim": 2319,
      "##nj": 2320,
      "ak": 2321,
      "oko": 2322,
      "##lije": 2323,
      "au": 2324,
      "##ruč": 2325,
      "##nima": 2326,
      "so": 2327,
      "##kre": 2328,
      "##lazi": 2329,
      "posto": 2330,
      "##vih": 2331,
      "ako": 2332,
      "##tom": 2333,
      "##vlje": 2334,
      "##lni": 2335,
      "odno": 2336,
      "##njem": 2337,
      "kada": 2338,
      "nema": 2339,
      "##cima": 2340,
      "Ja": 2341,
      "Pro": 2342,
      "##gani": 2343,
      "ci": 2344,
      "##ciji": 2345,
      "Va": 2346,
      "##klju": 2347,
      "200": 2348,
      "##bli": 2349,
      "##vori": 2350,
      "le": 2351,
      "##kup": 2352,
      "drugi": 2353,
      "##log": 2354,
      "proi": 2355,
      "Be": 2356,
      "neko": 2357,
      "ih": 2358,
      "Go": 2359,
      "##jek": 2360,
      "zbog": 2361,
      "##dio": 2362,
      "##cij": 2363,
      "ljudi": 2364,
      "##lim": 2365,
      "##vaju": 2366,
      "##ak": 2367,
      "##skim": 2368,
      "nakon": 2369,
      "##van": 2370,
      "dobi": 2371,
      "Pre": 2372,
      "kom": 2373,
      "##viti": 2374,
      "##pri": 2375,
      "svoje": 2376,
      "##ng": 2377,
      "Je": 2378,
      "dok": 2379,
      "kri": 2380,
      "ju": 2381,
      "##dne": 2382,
      "obra": 2383,
      "Vi": 2384,
      "##voj": 2385,
      "##telji": 2386,
      "proizvo": 2387,
      "##rni": 2388,
      "##žu": 2389,
      "ško": 2390,
      "potre": 2391,
      "10": 2392,
      "pita": 2393,
      "##nd": 2394,
      "##lek": 2395,
      "stu": 2396,
      "Ve": 2397,
      "sad": 2398,
      "##lne": 2399,
      "prema": 2400,
      "os": 2401,
      "kad": 2402,
      "njiho": 2403,
      "cije": 2404,
      "fa": 2405,
      "tr": 2406,
      "ste": 2407,
      "obi": 2408,
      "organi": 2409,
      "##stavlja": 2410,
      "kre": 2411,
      "##telj": 2412,
      "igra": 2413,
      "##ble": 2414,
      "##vio": 2415,
      "##ško": 2416,
      "pomo": 2417,
      "među": 2418,
      "##bije": 2419,
      "poče": 2420,
      "sr": 2421,
      "oba": 2422,
      "##čin": 2423,
      "##bno": 2424,
      "##jte": 2425,
      "nego": 2426,
      "##ren": 2427,
      "##tro": 2428,
      "##ciona": 2429,
      "##kao": 2430,
      "##forma": 2431,
      "njego": 2432,
      "obja": 2433,
      "prija": 2434,
      "svoj": 2435,
      "politi": 2436,
      "##ven": 2437,
      "##jući": 2438,
      "##pla": 2439,
      "##jedni": 2440,
      "Pri": 2441,
      "Od": 2442,
      "##gleda": 2443,
      "##menta": 2444,
      "Sve": 2445,
      "isto": 2446,
      "##dom": 2447,
      "##lom": 2448,
      "on": 2449,
      "##pisa": 2450,
      "posta": 2451,
      "jedan": 2452,
      "##lika": 2453,
      "broj": 2454,
      "##uro": 2455,
      "hrvat": 2456,
      "##vne": 2457,
      "##hva": 2458,
      "##kra": 2459,
      "la": 2460,
      "kod": 2461,
      "tri": 2462,
      "In": 2463,
      "rije": 2464,
      "##sla": 2465,
      "zem": 2466,
      "##tim": 2467,
      "##ar": 2468,
      "bila": 2469,
      "vreme": 2470,
      "održa": 2471,
      "stva": 2472,
      "ove": 2473,
      "##čka": 2474,
      "ide": 2475,
      "nam": 2476,
      "##jim": 2477,
      "im": 2478,
      "poslo": 2479,
      "auto": 2480,
      "nisu": 2481,
      "##rani": 2482,
      "##star": 2483,
      "##stve": 2484,
      "svije": 2485,
      "sla": 2486,
      "##rti": 2487,
      "##kri": 2488,
      "##tko": 2489,
      "##isi": 2490,
      "upra": 2491,
      "##stup": 2492,
      "pose": 2493,
      "##un": 2494,
      "##rta": 2495,
      "danas": 2496,
      "novi": 2497,
      "toga": 2498,
      "dobro": 2499,
      "##vog": 2500,
      "odlu": 2501,
      "##nik": 2502,
      "knji": 2503,
      "slo": 2504,
      "##diti": 2505,
      "sada": 2506,
      "upo": 2507,
      "fo": 2508,
      "##ner": 2509,
      "##rad": 2510,
      "iza": 2511,
      "##kaza": 2512,
      "mla": 2513,
      "##rod": 2514,
      "tak": 2515,
      "##al": 2516,
      "##noj": 2517,
      "##tne": 2518,
      "taj": 2519,
      "proble": 2520,
      "dva": 2521,
      "ho": 2522,
      "uče": 2523,
      "doda": 2524,
      "##jem": 2525,
      "Pe": 2526,
      "##in": 2527,
      "##zira": 2528,
      "Te": 2529,
      "##vao": 2530,
      "jedno": 2531,
      "##tar": 2532,
      "protiv": 2533,
      "##ltu": 2534,
      "##rima": 2535,
      "lije": 2536,
      "tije": 2537,
      "svje": 2538,
      "15": 2539,
      "neki": 2540,
      "##tka": 2541,
      "progra": 2542,
      "društ": 2543,
      "sma": 2544,
      "Iz": 2545,
      "mis": 2546,
      "sre": 2547,
      "##JE": 2548,
      "inte": 2549,
      "##sjedni": 2550,
      "pove": 2551,
      "##ranje": 2552,
      "čla": 2553,
      "12": 2554,
      "poda": 2555,
      "dije": 2556,
      "zašti": 2557,
      "nasta": 2558,
      "Ni": 2559,
      "##klo": 2560,
      "##niji": 2561,
      "rad": 2562,
      "##co": 2563,
      "izra": 2564,
      "isti": 2565,
      "koju": 2566,
      "vrijeme": 2567,
      "##pro": 2568,
      "nad": 2569,
      "kro": 2570,
      "De": 2571,
      "Ta": 2572,
      "Zagre": 2573,
      "18": 2574,
      "projek": 2575,
      "##nija": 2576,
      "osi": 2577,
      "br": 2578,
      "##joj": 2579,
      "ona": 2580,
      "zdra": 2581,
      "##vanju": 2582,
      "koristi": 2583,
      "tek": 2584,
      "##nski": 2585,
      "naše": 2586,
      "malo": 2587,
      "##meri": 2588,
      "Kako": 2589,
      "##vala": 2590,
      "BiH": 2591,
      "medi": 2592,
      "##op": 2593,
      "najbo": 2594,
      "##jedi": 2595,
      "informa": 2596,
      "ok": 2597,
      "##đi": 2598,
      "pozi": 2599,
      "##dru": 2600,
      "jedi": 2601,
      "##govor": 2602,
      "##pada": 2603,
      "dr": 2604,
      "##čne": 2605,
      "Ro": 2606,
      "Ako": 2607,
      "način": 2608,
      "##žbe": 2609,
      "prosto": 2610,
      "sti": 2611,
      "mili": 2612,
      "zapo": 2613,
      "ure": 2614,
      "##man": 2615,
      "ge": 2616,
      "##ver": 2617,
      "nika": 2618,
      "##rk": 2619,
      "gdje": 2620,
      "##volj": 2621,
      "Srbi": 2622,
      "osno": 2623,
      "##lta": 2624,
      "##rio": 2625,
      "##risti": 2626,
      "##čaj": 2627,
      "##čkog": 2628,
      "##vore": 2629,
      "##ur": 2630,
      "područ": 2631,
      "izbo": 2632,
      "##vna": 2633,
      "##ks": 2634,
      "##pje": 2635,
      "vam": 2636,
      "##tima": 2637,
      "##šnje": 2638,
      "sred": 2639,
      "ki": 2640,
      "##an": 2641,
      "drugo": 2642,
      "##met": 2643,
      "ime": 2644,
      "11": 2645,
      "popu": 2646,
      "ču": 2647,
      "onda": 2648,
      "##ndi": 2649,
      "##liči": 2650,
      "##nama": 2651,
      "##RA": 2652,
      "##rak": 2653,
      "tome": 2654,
      "fil": 2655,
      "ov": 2656,
      "##tre": 2657,
      "##teta": 2658,
      "##telja": 2659,
      "##nova": 2660,
      "sigu": 2661,
      "kojima": 2662,
      "##jom": 2663,
      "Ru": 2664,
      "##lači": 2665,
      "##čkih": 2666,
      "##iste": 2667,
      "možete": 2668,
      "Vla": 2669,
      "ono": 2670,
      "##nosi": 2671,
      "oni": 2672,
      "##tvr": 2673,
      "of": 2674,
      "Su": 2675,
      "##dna": 2676,
      "rekao": 2677,
      "##stava": 2678,
      "izme": 2679,
      "##nistar": 2680,
      "##vnog": 2681,
      "##vijek": 2682,
      "sna": 2683,
      "##šu": 2684,
      "kultu": 2685,
      "##vede": 2686,
      "##nan": 2687,
      "nešto": 2688,
      "tvr": 2689,
      "Se": 2690,
      "##nira": 2691,
      "##ogra": 2692,
      "##bri": 2693,
      "Di": 2694,
      "primje": 2695,
      "zavr": 2696,
      "##šnji": 2697,
      "zajedni": 2698,
      "še": 2699,
      "neka": 2700,
      "uči": 2701,
      "##rek": 2702,
      "Li": 2703,
      "##godi": 2704,
      "##mogu": 2705,
      "ovaj": 2706,
      "neće": 2707,
      "##lima": 2708,
      "bili": 2709,
      "##ška": 2710,
      "##pak": 2711,
      "##vila": 2712,
      "##tan": 2713,
      "##sne": 2714,
      "##rne": 2715,
      "Du": 2716,
      "Bu": 2717,
      "nekoliko": 2718,
      "korisni": 2719,
      "##stru": 2720,
      "dio": 2721,
      "##pli": 2722,
      "##zulta": 2723,
      "odre": 2724,
      "trenu": 2725,
      "##gli": 2726,
      "##čni": 2727,
      "##vodi": 2728,
      "##hu": 2729,
      "sli": 2730,
      "imaju": 2731,
      "##govi": 2732,
      "ča": 2733,
      "par": 2734,
      "žu": 2735,
      "##mis": 2736,
      "vis": 2737,
      "čo": 2738,
      "kaže": 2739,
      "##il": 2740,
      "##dar": 2741,
      "inter": 2742,
      "kroz": 2743,
      "preko": 2744,
      "##stri": 2745,
      "##ški": 2746,
      "budu": 2747,
      "organiza": 2748,
      "##novi": 2749,
      "pozna": 2750,
      "##men": 2751,
      "Ju": 2752,
      "Euro": 2753,
      "##nera": 2754,
      "##kle": 2755,
      "mjese": 2756,
      "Jo": 2757,
      "prava": 2758,
      "##vreme": 2759,
      "poja": 2760,
      "##uči": 2761,
      "##liza": 2762,
      "pravo": 2763,
      "bude": 2764,
      "##nuti": 2765,
      "jedna": 2766,
      "ri": 2767,
      "##tet": 2768,
      "##vnom": 2769,
      "##pis": 2770,
      "30": 2771,
      "teh": 2772,
      "##vnih": 2773,
      "ht": 2774,
      "##dova": 2775,
      "pret": 2776,
      "##tku": 2777,
      "svako": 2778,
      "Ha": 2779,
      "put": 2780,
      "ope": 2781,
      "##tke": 2782,
      "##bora": 2783,
      "kvali": 2784,
      "199": 2785,
      "srp": 2786,
      "jezi": 2787,
      "istra": 2788,
      "##šće": 2789,
      "##sre": 2790,
      "##šao": 2791,
      "dan": 2792,
      "gu": 2793,
      "##niti": 2794,
      "prili": 2795,
      "##tua": 2796,
      "svojim": 2797,
      "##publi": 2798,
      "između": 2799,
      "al": 2800,
      "vas": 2801,
      "kr": 2802,
      "##sle": 2803,
      "##NA": 2804,
      "##nske": 2805,
      "prvi": 2806,
      "##bje": 2807,
      "predsjedni": 2808,
      "hi": 2809,
      "##tori": 2810,
      "pje": 2811,
      "zah": 2812,
      "##eb": 2813,
      "##uze": 2814,
      "ras": 2815,
      "loka": 2816,
      "Ku": 2817,
      "raču": 2818,
      "##govara": 2819,
      "grad": 2820,
      "veći": 2821,
      "vrlo": 2822,
      "strane": 2823,
      "ši": 2824,
      "uspje": 2825,
      "tro": 2826,
      "##tna": 2827,
      "##loga": 2828,
      "Sta": 2829,
      "uvijek": 2830,
      "##lna": 2831,
      "##NI": 2832,
      "##jih": 2833,
      "14": 2834,
      "Si": 2835,
      "proce": 2836,
      "Ova": 2837,
      "##gao": 2838,
      "uvje": 2839,
      "građa": 2840,
      "šta": 2841,
      "Hrvatske": 2842,
      "##meta": 2843,
      "La": 2844,
      "2018": 2845,
      "želi": 2846,
      "napra": 2847,
      "svoju": 2848,
      "sluča": 2849,
      "aktiv": 2850,
      "proda": 2851,
      "rezulta": 2852,
      "##stvu": 2853,
      "svih": 2854,
      "ovog": 2855,
      "pono": 2856,
      "##lova": 2857,
      "posje": 2858,
      "doma": 2859,
      "regi": 2860,
      "000": 2861,
      "nu": 2862,
      "spa": 2863,
      "kojoj": 2864,
      "mode": 2865,
      "mno": 2866,
      "gle": 2867,
      "##više": 2868,
      "sje": 2869,
      "##čan": 2870,
      "govori": 2871,
      "puta": 2872,
      "13": 2873,
      "##cio": 2874,
      "##žno": 2875,
      "##tem": 2876,
      "##rna": 2877,
      "osje": 2878,
      "vlasti": 2879,
      "Tu": 2880,
      "druge": 2881,
      "##lnih": 2882,
      "odnosno": 2883,
      "osoba": 2884,
      "veliki": 2885,
      "##lnog": 2886,
      "lje": 2887,
      "##mati": 2888,
      "##štu": 2889,
      "##vija": 2890,
      "umje": 2891,
      "proš": 2892,
      "##rana": 2893,
      "klu": 2894,
      "Republi": 2895,
      "sadrža": 2896,
      "Tako": 2897,
      "##liti": 2898,
      "##jan": 2899,
      "mate": 2900,
      "##jedno": 2901,
      "voj": 2902,
      "##vez": 2903,
      "njih": 2904,
      "16": 2905,
      "##tp": 2906,
      "vidi": 2907,
      "dvo": 2908,
      "uklju": 2909,
      "##slo": 2910,
      "koliko": 2911,
      "##đer": 2912,
      "Nakon": 2913,
      "##žda": 2914,
      "##ksi": 2915,
      "##tora": 2916,
      "##cijama": 2917,
      "Srbije": 2918,
      "vije": 2919,
      "gru": 2920,
      "sati": 2921,
      "Gra": 2922,
      "Le": 2923,
      "##ST": 2924,
      "naš": 2925,
      "zad": 2926,
      "ovom": 2927,
      "život": 2928,
      "NA": 2929,
      "17": 2930,
      "finan": 2931,
      "poku": 2932,
      "ponu": 2933,
      "Ti": 2934,
      "moguć": 2935,
      "##el": 2936,
      "dalje": 2937,
      "Pred": 2938,
      "##čna": 2939,
      "##mina": 2940,
      "nalazi": 2941,
      "kojem": 2942,
      "čak": 2943,
      "##laga": 2944,
      "##gađa": 2945,
      "isku": 2946,
      "##laze": 2947,
      "##stitu": 2948,
      "oda": 2949,
      "tele": 2950,
      "kolači": 2951,
      "član": 2952,
      "for": 2953,
      "čita": 2954,
      "sku": 2955,
      "##zima": 2956,
      "##titi": 2957,
      "##unk": 2958,
      "##bar": 2959,
      "jednom": 2960,
      "vodi": 2961,
      "slobo": 2962,
      "oče": 2963,
      "bolje": 2964,
      "bra": 2965,
      "##tri": 2966,
      "Hrvatskoj": 2967,
      "##lih": 2968,
      "one": 2969,
      "http": 2970,
      "potpu": 2971,
      "##vro": 2972,
      "##ranja": 2973,
      "##ljivo": 2974,
      "pru": 2975,
      "##nka": 2976,
      "##vac": 2977,
      "Pu": 2978,
      "gleda": 2979,
      "naši": 2980,
      "izda": 2981,
      "##vra": 2982,
      "izvo": 2983,
      "##com": 2984,
      "uslu": 2985,
      "naro": 2986,
      "spre": 2987,
      "bri": 2988,
      "prepo": 2989,
      "##sna": 2990,
      "##taka": 2991,
      "##isam": 2992,
      "##dije": 2993,
      "lu": 2994,
      "najve": 2995,
      "vra": 2996,
      "poslje": 2997,
      "##čkom": 2998,
      "##stupa": 2999,
      "hr": 3000,
      "stude": 3001,
      "smje": 3002,
      "##kti": 3003,
      "##fa": 3004,
      "zi": 3005,
      "Sva": 3006,
      "##vesti": 3007,
      "##rka": 3008,
      "osigu": 3009,
      "##ntra": 3010,
      "omogu": 3011,
      "gospo": 3012,
      "zako": 3013,
      "##gen": 3014,
      "##tjeca": 3015,
      "##plo": 3016,
      "tom": 3017,
      "Ali": 3018,
      "##erce": 3019,
      "Među": 3020,
      "##nio": 3021,
      "SA": 3022,
      "mnogo": 3023,
      "##vite": 3024,
      "##vre": 3025,
      "Fa": 3026,
      "puno": 3027,
      "##kav": 3028,
      "##tio": 3029,
      "##blje": 3030,
      "##vili": 3031,
      "svim": 3032,
      "Nje": 3033,
      "funk": 3034,
      "##kova": 3035,
      "struč": 3036,
      "com": 3037,
      "Naj": 3038,
      "teme": 3039,
      "svjet": 3040,
      "Op": 3041,
      "ar": 3042,
      "##ške": 3043,
      "##OV": 3044,
      "##šnja": 3045,
      "##nata": 3046,
      "Au": 3047,
      "ćemo": 3048,
      "##nak": 3049,
      "korište": 3050,
      "##kovi": 3051,
      "##pita": 3052,
      "bole": 3053,
      "##riti": 3054,
      "25": 3055,
      "##san": 3056,
      "ljuba": 3057,
      "ostva": 3058,
      "različi": 3059,
      "nepo": 3060,
      "dvije": 3061,
      "pokre": 3062,
      "tim": 3063,
      "##šlja": 3064,
      "vode": 3065,
      "##nte": 3066,
      "Ce": 3067,
      "istraži": 3068,
      "vremena": 3069,
      "Ho": 3070,
      "##rma": 3071,
      "smatra": 3072,
      "viso": 3073,
      "##duze": 3074,
      "##vla": 3075,
      "##takmi": 3076,
      "##movi": 3077,
      "##nicu": 3078,
      "Al": 3079,
      "##tovo": 3080,
      "Lu": 3081,
      "ad": 3082,
      "EU": 3083,
      "ha": 3084,
      "So": 3085,
      "00": 3086,
      "vide": 3087,
      "pripre": 3088,
      "##nci": 3089,
      "##net": 3090,
      "##logi": 3091,
      "mladi": 3092,
      "##nović": 3093,
      "##ćem": 3094,
      "##isto": 3095,
      "Ki": 3096,
      "mnog": 3097,
      "##rvi": 3098,
      "posla": 3099,
      "pogo": 3100,
      "izja": 3101,
      "##hvati": 3102,
      "##ković": 3103,
      "##voji": 3104,
      "poru": 3105,
      "##RI": 3106,
      "mjesto": 3107,
      "##RE": 3108,
      "događa": 3109,
      "##xi": 3110,
      "##rane": 3111,
      "##dija": 3112,
      "predstavlja": 3113,
      "Ga": 3114,
      "komu": 3115,
      "##kul": 3116,
      "web": 3117,
      "eko": 3118,
      "##nskog": 3119,
      "##ntro": 3120,
      "nove": 3121,
      "čovje": 3122,
      "utakmi": 3123,
      "Beogra": 3124,
      "##jemo": 3125,
      "Vo": 3126,
      "svaki": 3127,
      "tje": 3128,
      "##sao": 3129,
      "rodi": 3130,
      "fe": 3131,
      "kak": 3132,
      "##stro": 3133,
      "##ch": 3134,
      "rje": 3135,
      "##nce": 3136,
      "##nače": 3137,
      "##nuo": 3138,
      "godinu": 3139,
      "##kazu": 3140,
      "minu": 3141,
      "##đen": 3142,
      "The": 3143,
      "Ministar": 3144,
      "##20": 3145,
      "##dnika": 3146,
      "##set": 3147,
      "rada": 3148,
      "##čkim": 3149,
      "##laz": 3150,
      "##rao": 3151,
      "spe": 3152,
      "kaza": 3153,
      "unu": 3154,
      "ener": 3155,
      "##fo": 3156,
      "Hrvatska": 3157,
      "pravi": 3158,
      "##raju": 3159,
      "proizvod": 3160,
      "rea": 3161,
      "stvari": 3162,
      "pomoć": 3163,
      "foto": 3164,
      "##đenje": 3165,
      "direk": 3166,
      "##AN": 3167,
      "ništa": 3168,
      "obrazo": 3169,
      "pojedi": 3170,
      "##bre": 3171,
      "Fi": 3172,
      "##dovi": 3173,
      "prona": 3174,
      "zlo": 3175,
      "skla": 3176,
      "niti": 3177,
      "zato": 3178,
      "Lo": 3179,
      "stru": 3180,
      "##ravno": 3181,
      "##nstve": 3182,
      "situa": 3183,
      "nagra": 3184,
      "ista": 3185,
      "neke": 3186,
      "usta": 3187,
      "##riji": 3188,
      "##vnim": 3189,
      "##tih": 3190,
      "oči": 3191,
      "##vani": 3192,
      "neo": 3193,
      "##cama": 3194,
      "sm": 3195,
      "priro": 3196,
      "Fran": 3197,
      "##gije": 3198,
      "postoji": 3199,
      "##šenje": 3200,
      "pokuša": 3201,
      "župa": 3202,
      "predstav": 3203,
      "Kra": 3204,
      "##spe": 3205,
      "manje": 3206,
      "Dru": 3207,
      "100": 3208,
      "##lija": 3209,
      "Mar": 3210,
      "##kr": 3211,
      "##koliko": 3212,
      "##vrši": 3213,
      "##čkoj": 3214,
      "dugo": 3215,
      "dra": 3216,
      "joj": 3217,
      "##mom": 3218,
      "pokaza": 3219,
      "##vši": 3220,
      "života": 3221,
      "24": 3222,
      "konce": 3223,
      "##ktu": 3224,
      "Že": 3225,
      "##lovi": 3226,
      "##nar": 3227,
      "##čku": 3228,
      "vozi": 3229,
      "trži": 3230,
      "nisam": 3231,
      "##ndar": 3232,
      "zat": 3233,
      "zdrav": 3234,
      "kla": 3235,
      "##grad": 3236,
      "sebe": 3237,
      "##zija": 3238,
      "##nike": 3239,
      "bli": 3240,
      "glu": 3241,
      "Pra": 3242,
      "##zma": 3243,
      "##njima": 3244,
      "##žiti": 3245,
      "##rve": 3246,
      "On": 3247,
      "##lago": 3248,
      "komenta": 3249,
      "##dnik": 3250,
      "Pi": 3251,
      "##feren": 3252,
      "djela": 3253,
      "poz": 3254,
      "##vana": 3255,
      "preda": 3256,
      "21": 3257,
      "znači": 3258,
      "Mu": 3259,
      "stano": 3260,
      "##tnih": 3261,
      "putem": 3262,
      "Tre": 3263,
      "##tnosti": 3264,
      "##JA": 3265,
      "##liku": 3266,
      "njega": 3267,
      "##pske": 3268,
      "##ut": 3269,
      "tada": 3270,
      "nazi": 3271,
      "##fika": 3272,
      "baš": 3273,
      "intere": 3274,
      "##bor": 3275,
      "##ključi": 3276,
      "radio": 3277,
      "posle": 3278,
      "profe": 3279,
      "opre": 3280,
      "pisa": 3281,
      "##mir": 3282,
      "možda": 3283,
      "##jima": 3284,
      "mre": 3285,
      "##lnim": 3286,
      "##pr": 3287,
      "raspo": 3288,
      "službe": 3289,
      "Ima": 3290,
      "##sije": 3291,
      "elek": 3292,
      "odgovo": 3293,
      "##LA": 3294,
      "Herce": 3295,
      "misli": 3296,
      "en": 3297,
      "doku": 3298,
      "grada": 3299,
      "oz": 3300,
      "ovdje": 3301,
      "ZA": 3302,
      "##ple": 3303,
      "kru": 3304,
      "##gled": 3305,
      "##štva": 3306,
      "kuna": 3307,
      "bor": 3308,
      "##šću": 3309,
      "potvr": 3310,
      "##dam": 3311,
      "Ovo": 3312,
      "ša": 3313,
      "maj": 3314,
      "druga": 3315,
      "drugih": 3316,
      "vrati": 3317,
      "naciona": 3318,
      "ispo": 3319,
      "##piti": 3320,
      "odgovor": 3321,
      "posebno": 3322,
      "##šli": 3323,
      "Vu": 3324,
      "##pred": 3325,
      "poveća": 3326,
      "vjero": 3327,
      "##raje": 3328,
      "pitanje": 3329,
      "neza": 3330,
      "dosta": 3331,
      "imati": 3332,
      "2017": 3333,
      "##štine": 3334,
      "##kli": 3335,
      "kome": 3336,
      "##nicima": 3337,
      "siste": 3338,
      "vidje": 3339,
      "obe": 3340,
      "Dra": 3341,
      "##ćih": 3342,
      "##cijom": 3343,
      "##čnih": 3344,
      "njegovo": 3345,
      "##tivno": 3346,
      "##ss": 3347,
      "ameri": 3348,
      "Fe": 3349,
      "##cje": 3350,
      "##pravo": 3351,
      "stranica": 3352,
      "Ca": 3353,
      "djelo": 3354,
      "##ck": 3355,
      "##tiri": 3356,
      "##laza": 3357,
      "##nto": 3358,
      "materija": 3359,
      "promje": 3360,
      "50": 3361,
      "##zbe": 3362,
      "Co": 3363,
      "##LI": 3364,
      "određe": 3365,
      "##pusti": 3366,
      "##der": 3367,
      "ap": 3368,
      "međuna": 3369,
      "##rali": 3370,
      "sezo": 3371,
      "##šlje": 3372,
      "##prije": 3373,
      "##tetu": 3374,
      "##snije": 3375,
      "##ww": 3376,
      "ana": 3377,
      "priča": 3378,
      "##kata": 3379,
      "bih": 3380,
      "Ze": 3381,
      "otkri": 3382,
      "##RO": 3383,
      "ipak": 3384,
      "##line": 3385,
      "mjesta": 3386,
      "naja": 3387,
      "sasta": 3388,
      "također": 3389,
      "kontro": 3390,
      "##nite": 3391,
      "IS": 3392,
      "pona": 3393,
      "Ameri": 3394,
      "##tica": 3395,
      "zado": 3396,
      "razu": 3397,
      "##zije": 3398,
      "miliju": 3399,
      "www": 3400,
      "slučaju": 3401,
      "##ry": 3402,
      "kraju": 3403,
      "PO": 3404,
      "##mpa": 3405,
      "aktivnosti": 3406,
      "Ri": 3407,
      "##dina": 3408,
      "##TI": 3409,
      "području": 3410,
      "##som": 3411,
      "kojeg": 3412,
      "otvore": 3413,
      "vlasni": 3414,
      "##vor": 3415,
      "crk": 3416,
      "##per": 3417,
      "upu": 3418,
      "novo": 3419,
      "društve": 3420,
      "Slo": 3421,
      "razvo": 3422,
      "nov": 3423,
      "##ljem": 3424,
      "jednostav": 3425,
      "stran": 3426,
      "##xico": 3427,
      "##voljno": 3428,
      "##tera": 3429,
      "##šenja": 3430,
      "problem": 3431,
      "Republike": 3432,
      "stanovni": 3433,
      "##njih": 3434,
      "pet": 3435,
      "sudje": 3436,
      "dne": 3437,
      "##slu": 3438,
      "pote": 3439,
      "poput": 3440,
      "##SK": 3441,
      "najbolji": 3442,
      "##ljo": 3443,
      "udru": 3444,
      "##nke": 3445,
      "jednog": 3446,
      "##ljede": 3447,
      "##rži": 3448,
      "dis": 3449,
      "##vanjem": 3450,
      "Grad": 3451,
      "njima": 3452,
      "uve": 3453,
      "##bom": 3454,
      "##dili": 3455,
      "čini": 3456,
      "##zni": 3457,
      "##đenja": 3458,
      "razvoj": 3459,
      "Kada": 3460,
      "##nska": 3461,
      "##dite": 3462,
      "poma": 3463,
      "##gova": 3464,
      "prizna": 3465,
      "##zda": 3466,
      "odma": 3467,
      "22": 3468,
      "Sto": 3469,
      "tru": 3470,
      "četvr": 3471,
      "povije": 3472,
      "co": 3473,
      "toliko": 3474,
      "odluči": 3475,
      "stvara": 3476,
      "pone": 3477,
      "##lnom": 3478,
      "ćete": 3479,
      "sredi": 3480,
      "prvo": 3481,
      "##učili": 3482,
      "ljud": 3483,
      "Rije": 3484,
      "posti": 3485,
      "##kama": 3486,
      "##NO": 3487,
      "##nga": 3488,
      "nosi": 3489,
      "part": 3490,
      "##bija": 3491,
      "ulo": 3492,
      "podataka": 3493,
      "uni": 3494,
      "osobe": 3495,
      "fotogra": 3496,
      "uži": 3497,
      "uspo": 3498,
      "poro": 3499,
      "računa": 3500,
      "##đena": 3501,
      "jako": 3502,
      "osjeća": 3503,
      "obo": 3504,
      "upravo": 3505,
      "##lnu": 3506,
      "posljed": 3507,
      "svega": 3508,
      "##ment": 3509,
      "##laže": 3510,
      "##tkom": 3511,
      "##mena": 3512,
      "##pad": 3513,
      "važ": 3514,
      "napo": 3515,
      "pore": 3516,
      "socija": 3517,
      "četiri": 3518,
      "sigurno": 3519,
      "##vjet": 3520,
      "##voje": 3521,
      "veza": 3522,
      "##TO": 3523,
      "ću": 3524,
      "potrebno": 3525,
      "##ljena": 3526,
      "sko": 3527,
      "vaše": 3528,
      "ovu": 3529,
      "izgleda": 3530,
      "Kao": 3531,
      "okvi": 3532,
      "Što": 3533,
      "bes": 3534,
      "uda": 3535,
      "tijekom": 3536,
      "##zaj": 3537,
      "he": 3538,
      "svijetu": 3539,
      "##ljen": 3540,
      "##vnu": 3541,
      "odu": 3542,
      "sami": 3543,
      "prva": 3544,
      "institu": 3545,
      "mnogi": 3546,
      "##TA": 3547,
      "drugim": 3548,
      "##jski": 3549,
      "postoje": 3550,
      "moguće": 3551,
      "Dana": 3552,
      "##nos": 3553,
      "##ime": 3554,
      "Hercegovi": 3555,
      "##lić": 3556,
      "tko": 3557,
      "priva": 3558,
      "teško": 3559,
      "##žba": 3560,
      "škole": 3561,
      "23": 3562,
      "##tory": 3563,
      "##smo": 3564,
      "nedo": 3565,
      "meta": 3566,
      "pruža": 3567,
      "##nad": 3568,
      "Lju": 3569,
      "##blja": 3570,
      "genera": 3571,
      "##lica": 3572,
      "##rem": 3573,
      "obu": 3574,
      "##tog": 3575,
      "Saraje": 3576,
      "zahtje": 3577,
      "##dnost": 3578,
      "riječi": 3579,
      "znam": 3580,
      "tehno": 3581,
      "##čenje": 3582,
      "sek": 3583,
      "osim": 3584,
      "##dnosti": 3585,
      "##stima": 3586,
      "stvar": 3587,
      "tran": 3588,
      "##glo": 3589,
      "Evro": 3590,
      "program": 3591,
      "##sova": 3592,
      "sklo": 3593,
      "una": 3594,
      "##zenta": 3595,
      "zemlji": 3596,
      "##jo": 3597,
      "ovi": 3598,
      "tamo": 3599,
      "najbolje": 3600,
      "traži": 3601,
      "podr": 3602,
      "fakul": 3603,
      "##lik": 3604,
      "sud": 3605,
      "dolazi": 3606,
      "poseb": 3607,
      "Ci": 3608,
      "odli": 3609,
      "film": 3610,
      "##razu": 3611,
      "##mira": 3612,
      "odgovara": 3613,
      "Zagrebu": 3614,
      "##mor": 3615,
      "kate": 3616,
      "##zne": 3617,
      "mogao": 3618,
      "##šća": 3619,
      "##lost": 3620,
      "Če": 3621,
      "nastav": 3622,
      "imao": 3623,
      "##rke": 3624,
      "mogli": 3625,
      "##vlju": 3626,
      "obzi": 3627,
      "##vrše": 3628,
      "prote": 3629,
      "Nije": 3630,
      "##jske": 3631,
      "##VA": 3632,
      "Ge": 3633,
      "svom": 3634,
      "##štvo": 3635,
      "plaća": 3636,
      "##lnosti": 3637,
      "##ty": 3638,
      "zajedno": 3639,
      "izlo": 3640,
      "##vod": 3641,
      "##lio": 3642,
      "##čić": 3643,
      "##nca": 3644,
      "pomoći": 3645,
      "##ura": 3646,
      "stranice": 3647,
      "##šno": 3648,
      "posao": 3649,
      "opet": 3650,
      "##rova": 3651,
      "##TE": 3652,
      "Prema": 3653,
      "svaka": 3654,
      "odra": 3655,
      "##nzi": 3656,
      "##gom": 3657,
      "nači": 3658,
      "često": 3659,
      "susre": 3660,
      "##mobi": 3661,
      "vlada": 3662,
      "utvr": 3663,
      "kojim": 3664,
      "ovoj": 3665,
      "mene": 3666,
      "ukup": 3667,
      "tog": 3668,
      "zemlje": 3669,
      "##renje": 3670,
      "##ženje": 3671,
      "kompa": 3672,
      "2016": 3673,
      "##tki": 3674,
      "Ita": 3675,
      "##rava": 3676,
      "##MA": 3677,
      "Ar": 3678,
      "the": 3679,
      "prisu": 3680,
      "poči": 3681,
      "Zagreb": 3682,
      "gotovo": 3683,
      "nase": 3684,
      "##đuje": 3685,
      "škola": 3686,
      "##ved": 3687,
      "jednu": 3688,
      "##rić": 3689,
      "namje": 3690,
      "milijuna": 3691,
      "veliko": 3692,
      "2015": 3693,
      "opa": 3694,
      "##ncija": 3695,
      "##uma": 3696,
      "programa": 3697,
      "##tnika": 3698,
      "sebi": 3699,
      "##šku": 3700,
      "##nskih": 3701,
      "##kuplja": 3702,
      "##gro": 3703,
      "činje": 3704,
      "država": 3705,
      "demo": 3706,
      "##th": 3707,
      "tradi": 3708,
      "##rske": 3709,
      "##zor": 3710,
      "SAD": 3711,
      "##nac": 3712,
      "god": 3713,
      "##čnim": 3714,
      "##rica": 3715,
      "iako": 3716,
      "euro": 3717,
      "##ćeg": 3718,
      "##šava": 3719,
      "##čer": 3720,
      "plo": 3721,
      "bit": 3722,
      "potreb": 3723,
      "Fo": 3724,
      "projekta": 3725,
      "osob": 3726,
      "Zako": 3727,
      "pitanja": 3728,
      "##veza": 3729,
      "možemo": 3730,
      "##ly": 3731,
      "##istory": 3732,
      "##cem": 3733,
      "##kro": 3734,
      "Srbiji": 3735,
      "rekla": 3736,
      "##bio": 3737,
      "##ban": 3738,
      "Sla": 3739,
      "nau": 3740,
      "##mišlja": 3741,
      "##tere": 3742,
      "žena": 3743,
      "Nema": 3744,
      "eki": 3745,
      "##like": 3746,
      "##čiti": 3747,
      "kraj": 3748,
      "zašto": 3749,
      "ministar": 3750,
      "kojih": 3751,
      "zahva": 3752,
      "##čnog": 3753,
      "zra": 3754,
      "##ista": 3755,
      "##govora": 3756,
      "potpuno": 3757,
      "razi": 3758,
      "ovih": 3759,
      "##šić": 3760,
      "##dila": 3761,
      "##lice": 3762,
      "minuta": 3763,
      "informacije": 3764,
      "##vnosti": 3765,
      "perio": 3766,
      "nis": 3767,
      "reći": 3768,
      "sport": 3769,
      "imali": 3770,
      "navede": 3771,
      "ispu": 3772,
      "države": 3773,
      "##čenja": 3774,
      "##teljima": 3775,
      "pretho": 3776,
      "upravlja": 3777,
      "porta": 3778,
      "##dera": 3779,
      "predsta": 3780,
      "savje": 3781,
      "automobi": 3782,
      "##čnu": 3783,
      "kolo": 3784,
      "fizi": 3785,
      "HD": 3786,
      "##NE": 3787,
      "odmah": 3788,
      "neu": 3789,
      "pobje": 3790,
      "svijeta": 3791,
      "zo": 3792,
      "slika": 3793,
      "##KA": 3794,
      "##vica": 3795,
      "sljede": 3796,
      "##nove": 3797,
      "mini": 3798,
      "boga": 3799,
      "En": 3800,
      "40": 3801,
      "Kad": 3802,
      "poduze": 3803,
      "##pera": 3804,
      "Uz": 3805,
      "meni": 3806,
      "značaj": 3807,
      "##lazak": 3808,
      "##rac": 3809,
      "hra": 3810,
      "boo": 3811,
      "##bina": 3812,
      "##sam": 3813,
      "mjestu": 3814,
      "izd": 3815,
      "tih": 3816,
      "##zem": 3817,
      "problema": 3818,
      "nama": 3819,
      "Pod": 3820,
      "2013": 3821,
      "pora": 3822,
      "zara": 3823,
      "prven": 3824,
      "dozvo": 3825,
      "narod": 3826,
      "završi": 3827,
      "trebalo": 3828,
      "kandi": 3829,
      "##DI": 3830,
      "##glasi": 3831,
      "Mexico": 3832,
      "ig": 3833,
      "izgu": 3834,
      "Svi": 3835,
      "Gla": 3836,
      "rata": 3837,
      "##nsko": 3838,
      "##ljeno": 3839,
      "##jna": 3840,
      "ple": 3841,
      "pogleda": 3842,
      "##sob": 3843,
      "##zam": 3844,
      "surad": 3845,
      "##sim": 3846,
      "dija": 3847,
      "##renja": 3848,
      "Hrva": 3849,
      "svojih": 3850,
      "Prije": 3851,
      "svog": 3852,
      "gospodar": 3853,
      "dola": 3854,
      "porodi": 3855,
      "djece": 3856,
      "najviše": 3857,
      "##DA": 3858,
      "##vaja": 3859,
      "##žio": 3860,
      "dovoljno": 3861,
      "odje": 3862,
      "proizvoda": 3863,
      "predsjednik": 3864,
      "##CI": 3865,
      "##riju": 3866,
      "##es": 3867,
      "##ljeni": 3868,
      "##ntar": 3869,
      "##VO": 3870,
      "pola": 3871,
      "prilikom": 3872,
      "okru": 3873,
      "Novi": 3874,
      "##đeno": 3875,
      "Niko": 3876,
      "##BN": 3877,
      "pis": 3878,
      "##čita": 3879,
      "dizaj": 3880,
      "Iako": 3881,
      "Kri": 3882,
      "and": 3883,
      "##znati": 3884,
      "žele": 3885,
      "čeka": 3886,
      "isko": 3887,
      "svr": 3888,
      "skupi": 3889,
      "##kva": 3890,
      "Tra": 3891,
      "##ljopri": 3892,
      "2012": 3893,
      "##tnu": 3894,
      "upotre": 3895,
      "uključu": 3896,
      "Samo": 3897,
      "##mini": 3898,
      "obla": 3899,
      "uop": 3900,
      "eks": 3901,
      "VI": 3902,
      "##mbe": 3903,
      "kole": 3904,
      "##jeva": 3905,
      "zaposle": 3906,
      "##žni": 3907,
      "skladu": 3908,
      "adre": 3909,
      "##lite": 3910,
      "2011": 3911,
      "2010": 3912,
      "opo": 3913,
      "ISBN": 3914,
      "napisa": 3915,
      "##tova": 3916,
      "Zna": 3917,
      "ovim": 3918,
      "2014": 3919,
      "##čar": 3920,
      "##pio": 3921,
      "##en": 3922,
      "##KO": 3923,
      "zgra": 3924,
      "deta": 3925,
      "znanstve": 3926,
      "stav": 3927,
      "##đeni": 3928,
      "per": 3929,
      "prime": 3930,
      "posve": 3931,
      "am": 3932,
      "Ovaj": 3933,
      "polo": 3934,
      "zanim": 3935,
      "psi": 3936,
      "##ćine": 3937,
      "godini": 3938,
      "Sre": 3939,
      "gro": 3940,
      "mislim": 3941,
      "zdravstve": 3942,
      "Spli": 3943,
      "unutar": 3944,
      "kraja": 3945,
      "##tnog": 3946,
      "tere": 3947,
      "##tski": 3948,
      "objek": 3949,
      "##kade": 3950,
      "sce": 3951,
      "##loški": 3952,
      "2020": 3953,
      "##ok": 3954,
      "očeku": 3955,
      "##rtu": 3956,
      "vjeru": 3957,
      "An": 3958,
      "produ": 3959,
      "##kve": 3960,
      "26": 3961,
      "##oma": 3962,
      "##njo": 3963,
      "##gnu": 3964,
      "27": 3965,
      "uređa": 3966,
      "28": 3967,
      "Pla": 3968,
      "##rnog": 3969,
      "kvalite": 3970,
      "##manje": 3971,
      "njezi": 3972,
      "##gor": 3973,
      "potro": 3974,
      "##VI": 3975,
      "##nskom": 3976,
      "##lici": 3977,
      "jasno": 3978,
      "##menti": 3979,
      "Bri": 3980,
      "##gne": 3981,
      "##limo": 3982,
      "pobo": 3983,
      "zada": 3984,
      "jo": 3985,
      "polu": 3986,
      "katego": 3987,
      "njegov": 3988,
      "svijet": 3989,
      "##kad": 3990,
      "postup": 3991,
      "mogućnosti": 3992,
      "##kazuje": 3993,
      "sme": 3994,
      "riječ": 3995,
      "##lnik": 3996,
      "Ži": 3997,
      "oku": 3998,
      "kandida": 3999,
      "slije": 4000,
      "prihva": 4001,
      "##žan": 4002,
      "kasnije": 4003,
      "Spo": 4004,
      "oti": 4005,
      "konku": 4006,
      "##sija": 4007,
      "ca": 4008,
      "elektro": 4009,
      "##ćim": 4010,
      "sim": 4011,
      "rado": 4012,
      "##tion": 4013,
      "ogra": 4014,
      "defi": 4015,
      "##dima": 4016,
      "mogućnost": 4017,
      "books": 4018,
      "osvoji": 4019,
      "198": 4020,
      "##rice": 4021,
      "objavlje": 4022,
      "bismo": 4023,
      "##tivne": 4024,
      "ekonom": 4025,
      "svojoj": 4026,
      "##tnim": 4027,
      "novina": 4028,
      "anti": 4029,
      "##matra": 4030,
      "kuće": 4031,
      "Mis": 4032,
      "##vremeno": 4033,
      "njemu": 4034,
      "piše": 4035,
      "rade": 4036,
      "para": 4037,
      "Bro": 4038,
      "Više": 4039,
      "Kon": 4040,
      "bolesti": 4041,
      "preporu": 4042,
      "mišlje": 4043,
      "##telje": 4044,
      "podi": 4045,
      "spome": 4046,
      "##dia": 4047,
      "gde": 4048,
      "video": 4049,
      "poljopri": 4050,
      "premije": 4051,
      "zemlja": 4052,
      "##lina": 4053,
      "natjeca": 4054,
      "bije": 4055,
      "radu": 4056,
      "Kom": 4057,
      "##šla": 4058,
      "obilje": 4059,
      "konta": 4060,
      "##lizira": 4061,
      "##kna": 4062,
      "čega": 4063,
      "##kaz": 4064,
      "##vamo": 4065,
      "imamo": 4066,
      "prome": 4067,
      "##lin": 4068,
      "njegova": 4069,
      "Međutim": 4070,
      "društva": 4071,
      "Pr": 4072,
      "redo": 4073,
      "koriste": 4074,
      "##mija": 4075,
      "cu": 4076,
      "zaštite": 4077,
      "##DE": 4078,
      "norma": 4079,
      "pjes": 4080,
      "brani": 4081,
      "sudjelo": 4082,
      "##rba": 4083,
      "Vije": 4084,
      "##jka": 4085,
      "smije": 4086,
      "zau": 4087,
      "obavlja": 4088,
      "internet": 4089,
      "moći": 4090,
      "informacija": 4091,
      "kulture": 4092,
      "grado": 4093,
      "poslu": 4094,
      "Ši": 4095,
      "medici": 4096,
      "tokom": 4097,
      "dopri": 4098,
      "lako": 4099,
      "hote": 4100,
      "gi": 4101,
      "muška": 4102,
      "onih": 4103,
      "Inter": 4104,
      "##lnoj": 4105,
      "zaba": 4106,
      "##dnici": 4107,
      "nikada": 4108,
      "opera": 4109,
      "centra": 4110,
      "izne": 4111,
      "tehni": 4112,
      "nogo": 4113,
      "##stoji": 4114,
      "kup": 4115,
      "skup": 4116,
      "##vnoj": 4117,
      "ispra": 4118,
      "zadrža": 4119,
      "##vića": 4120,
      "jedne": 4121,
      "ski": 4122,
      "ura": 4123,
      "kazao": 4124,
      "nova": 4125,
      "##din": 4126,
      "obitelji": 4127,
      "glazbe": 4128,
      "##čio": 4129,
      "##pisi": 4130,
      "##gija": 4131,
      "##čnom": 4132,
      "##den": 4133,
      "##br": 4134,
      "##ogle": 4135,
      "obzirom": 4136,
      "područja": 4137,
      "St": 4138,
      "##ljene": 4139,
      "uo": 4140,
      "izvje": 4141,
      "time": 4142,
      "publi": 4143,
      "novih": 4144,
      "##DP": 4145,
      "mr": 4146,
      "okviru": 4147,
      "##fija": 4148,
      "Uni": 4149,
      "Zbog": 4150,
      "čemu": 4151,
      "hla": 4152,
      "##sor": 4153,
      "##logije": 4154,
      "And": 4155,
      "dopu": 4156,
      "dobiti": 4157,
      "##cha": 4158,
      "##čak": 4159,
      "it": 4160,
      "ozbi": 4161,
      "površi": 4162,
      "žene": 4163,
      "Udru": 4164,
      "mobi": 4165,
      "##lov": 4166,
      "Osim": 4167,
      "mom": 4168,
      "##njuje": 4169,
      "zabora": 4170,
      "smis": 4171,
      "naba": 4172,
      "##dak": 4173,
      "prijed": 4174,
      "sigur": 4175,
      "povje": 4176,
      "##snu": 4177,
      "tisu": 4178,
      "repre": 4179,
      "##che": 4180,
      "puto": 4181,
      "moraju": 4182,
      "##štaj": 4183,
      "veoma": 4184,
      "cje": 4185,
      "popula": 4186,
      "buduć": 4187,
      "otvara": 4188,
      "Ste": 4189,
      "ljudima": 4190,
      "sata": 4191,
      "bile": 4192,
      "##stan": 4193,
      "##dnom": 4194,
      "moj": 4195,
      "##um": 4196,
      "zapravo": 4197,
      "indu": 4198,
      "Mla": 4199,
      "svet": 4200,
      "cilj": 4201,
      "##rite": 4202,
      "##žnje": 4203,
      "##kt": 4204,
      "##ton": 4205,
      "brzo": 4206,
      "mije": 4207,
      "investi": 4208,
      "Či": 4209,
      "##nicama": 4210,
      "bespla": 4211,
      "naravno": 4212,
      "##vine": 4213,
      "##vlji": 4214,
      "##njoj": 4215,
      "Srbija": 4216,
      "kar": 4217,
      "tem": 4218,
      "Isto": 4219,
      "##rala": 4220,
      "##rili": 4221,
      "##glavnom": 4222,
      "HDZ": 4223,
      "zapa": 4224,
      "omogući": 4225,
      "Zagreba": 4226,
      "listo": 4227,
      "osu": 4228,
      "pobolj": 4229,
      "standar": 4230,
      "odnosi": 4231,
      "sum": 4232,
      "poveza": 4233,
      "studi": 4234,
      "organizira": 4235,
      "živi": 4236,
      "poslije": 4237,
      "pitanju": 4238,
      "izgrad": 4239,
      "ugo": 4240,
      "završe": 4241,
      "##kat": 4242,
      "zakon": 4243,
      "odnosu": 4244,
      "koristiti": 4245,
      "povra": 4246,
      "stari": 4247,
      "Sveučili": 4248,
      "##lti": 4249,
      "##ćina": 4250,
      "doži": 4251,
      "##žen": 4252,
      "29": 4253,
      "ele": 4254,
      "##veo": 4255,
      "doba": 4256,
      "predse": 4257,
      "postav": 4258,
      "##leko": 4259,
      "##stvom": 4260,
      "knjiže": 4261,
      "##lac": 4262,
      "jednostavno": 4263,
      "##losti": 4264,
      "očeki": 4265,
      "knjiga": 4266,
      "##mana": 4267,
      "##ština": 4268,
      "##tnik": 4269,
      "eura": 4270,
      "gradu": 4271,
      "ža": 4272,
      "daje": 4273,
      "##rano": 4274,
      "usluga": 4275,
      "turisti": 4276,
      "##ld": 4277,
      "pošto": 4278,
      "##len": 4279,
      "ljude": 4280,
      "tijela": 4281,
      "škol": 4282,
      "##dnoj": 4283,
      "Vr": 4284,
      "engle": 4285,
      "##snosti": 4286,
      "##lit": 4287,
      "mani": 4288,
      "##snih": 4289,
      "##siona": 4290,
      "##ženja": 4291,
      "međunarod": 4292,
      "zvu": 4293,
      "##čima": 4294,
      "odo": 4295,
      "##pisu": 4296,
      "He": 4297,
      "##gh": 4298,
      "saj": 4299,
      "trgovi": 4300,
      "dobio": 4301,
      "gre": 4302,
      "Njema": 4303,
      "Hi": 4304,
      "dosa": 4305,
      "agen": 4306,
      "##tivi": 4307,
      "isključi": 4308,
      "turi": 4309,
      "##jar": 4310,
      "naroda": 4311,
      "uspe": 4312,
      "prima": 4313,
      "nikad": 4314,
      "lice": 4315,
      "##ber": 4316,
      "niko": 4317,
      "posjeti": 4318,
      "kona": 4319,
      "##jskog": 4320,
      "reci": 4321,
      "svima": 4322,
      "biste": 4323,
      "ponaša": 4324,
      "##njen": 4325,
      "Ob": 4326,
      "raspra": 4327,
      "##ćima": 4328,
      "dijete": 4329,
      "Stu": 4330,
      "zla": 4331,
      "um": 4332,
      "planira": 4333,
      "strana": 4334,
      "djecu": 4335,
      "ke": 4336,
      "##lka": 4337,
      "##teri": 4338,
      "Bra": 4339,
      "svakodne": 4340,
      "##ll": 4341,
      "##tnom": 4342,
      "usluge": 4343,
      "utjeca": 4344,
      "donosi": 4345,
      "vidjeti": 4346,
      "##šnjeg": 4347,
      "##kar": 4348,
      "velika": 4349,
      "velike": 4350,
      "sprem": 4351,
      "zema": 4352,
      "pristup": 4353,
      "bol": 4354,
      "arhi": 4355,
      "građana": 4356,
      "knjige": 4357,
      "nasi": 4358,
      "##žić": 4359,
      "##bama": 4360,
      "predvi": 4361,
      "##drža": 4362,
      "netko": 4363,
      "##nula": 4364,
      "festi": 4365,
      "subo": 4366,
      "Danas": 4367,
      "razloga": 4368,
      "reprezenta": 4369,
      "deset": 4370,
      "optu": 4371,
      "##žbi": 4372,
      "vozila": 4373,
      "##tivni": 4374,
      "svakom": 4375,
      "iznosi": 4376,
      "##bili": 4377,
      "##sli": 4378,
      "otvori": 4379,
      "##rama": 4380,
      "##fije": 4381,
      "njegove": 4382,
      "vrh": 4383,
      "konferen": 4384,
      "životu": 4385,
      "##čeno": 4386,
      "želje": 4387,
      "##sak": 4388,
      "##gan": 4389,
      "igre": 4390,
      "##listi": 4391,
      "oto": 4392,
      "##vnik": 4393,
      "odgo": 4394,
      "blo": 4395,
      "čovjek": 4396,
      "edu": 4397,
      "##rum": 4398,
      "karak": 4399,
      "dobar": 4400,
      "kli": 4401,
      "Zakona": 4402,
      "KO": 4403,
      "##šlo": 4404,
      "##prav": 4405,
      "zatim": 4406,
      "##tiva": 4407,
      "##vjeti": 4408,
      "izbor": 4409,
      "##50": 4410,
      "klju": 4411,
      "Europ": 4412,
      "trenutku": 4413,
      "sle": 4414,
      "Gospo": 4415,
      "mladih": 4416,
      "šest": 4417,
      "broja": 4418,
      "kriti": 4419,
      "##luje": 4420,
      "naših": 4421,
      "Drža": 4422,
      "Vje": 4423,
      "II": 4424,
      "##ljak": 4425,
      "izvan": 4426,
      "dina": 4427,
      "Crk": 4428,
      "traja": 4429,
      "##osta": 4430,
      "nivo": 4431,
      "zaštitu": 4432,
      "pored": 4433,
      "izuze": 4434,
      "##njak": 4435,
      "##jno": 4436,
      "01": 4437,
      "##mio": 4438,
      "bora": 4439,
      "gr": 4440,
      "potrebe": 4441,
      "kupa": 4442,
      "podatke": 4443,
      "31": 4444,
      "##kta": 4445,
      "Is": 4446,
      "njihove": 4447,
      "ozbilj": 4448,
      "vrata": 4449,
      "moze": 4450,
      "Odlu": 4451,
      "##jekata": 4452,
      "specija": 4453,
      "##vode": 4454,
      "at": 4455,
      "##VE": 4456,
      "gubi": 4457,
      "Dje": 4458,
      "Predsjedni": 4459,
      "##žila": 4460,
      "oslo": 4461,
      "ovoga": 4462,
      "vezi": 4463,
      "##ture": 4464,
      "kolačića": 4465,
      "hrvatski": 4466,
      "istak": 4467,
      "zanima": 4468,
      "##ler": 4469,
      "slučaj": 4470,
      "prostor": 4471,
      "Francu": 4472,
      "Vlade": 4473,
      "##cijske": 4474,
      "mali": 4475,
      "Zato": 4476,
      "Zo": 4477,
      "obitelj": 4478,
      "suda": 4479,
      "mogla": 4480,
      "##logija": 4481,
      "europ": 4482,
      "##čara": 4483,
      "History": 4484,
      "dokumenta": 4485,
      "Ivan": 4486,
      "raditi": 4487,
      "Grada": 4488,
      "##cy": 4489,
      "životi": 4490,
      "mjeseci": 4491,
      "zakona": 4492,
      "napa": 4493,
      "preu": 4494,
      "##nin": 4495,
      "izvr": 4496,
      "##jatno": 4497,
      "vaš": 4498,
      "razdo": 4499,
      "Alek": 4500,
      "nače": 4501,
      "zaklju": 4502,
      "zabra": 4503,
      "nesta": 4504,
      "uzro": 4505,
      "HR": 4506,
      "Može": 4507,
      "sustava": 4508,
      "naru": 4509,
      "##ćeni": 4510,
      "kva": 4511,
      "komunika": 4512,
      "Mari": 4513,
      "stolje": 4514,
      "##baci": 4515,
      "2008": 4516,
      "stro": 4517,
      "ispod": 4518,
      "##dnih": 4519,
      "imala": 4520,
      "drugom": 4521,
      "##snost": 4522,
      "09": 4523,
      "##hra": 4524,
      "##nese": 4525,
      "vrijednosti": 4526,
      "##rnoj": 4527,
      "rece": 4528,
      "ukoliko": 4529,
      "kuća": 4530,
      "sarad": 4531,
      "moje": 4532,
      "##vice": 4533,
      "pripa": 4534,
      "nekim": 4535,
      "sup": 4536,
      "navodi": 4537,
      "upozna": 4538,
      "parti": 4539,
      "194": 4540,
      "iskustva": 4541,
      "##rea": 4542,
      "Gu": 4543,
      "##tnost": 4544,
      "##ljiva": 4545,
      "nadle": 4546,
      "neda": 4547,
      "potra": 4548,
      "kući": 4549,
      "građe": 4550,
      "nada": 4551,
      "natje": 4552,
      "##vina": 4553,
      "##čeni": 4554,
      "##ris": 4555,
      "##love": 4556,
      "postoja": 4557,
      "brzi": 4558,
      "ek": 4559,
      "##kcije": 4560,
      "2009": 4561,
      "visi": 4562,
      "##žili": 4563,
      "60": 4564,
      "NE": 4565,
      "lak": 4566,
      "##nijih": 4567,
      "telef": 4568,
      "imam": 4569,
      "sustav": 4570,
      "žive": 4571,
      "Oni": 4572,
      "zamje": 4573,
      "profi": 4574,
      "##son": 4575,
      "Prija": 4576,
      "##ME": 4577,
      "Ona": 4578,
      "##šiti": 4579,
      "tj": 4580,
      "podrža": 4581,
      "itd": 4582,
      "Isu": 4583,
      "poboljša": 4584,
      "količi": 4585,
      "197": 4586,
      "pros": 4587,
      "ponovo": 4588,
      "razmišlja": 4589,
      "##žava": 4590,
      "##njom": 4591,
      "identi": 4592,
      "##tske": 4593,
      "tema": 4594,
      "aplika": 4595,
      "##gdje": 4596,
      "Bosne": 4597,
      "novac": 4598,
      "idu": 4599,
      "uglavnom": 4600,
      "sja": 4601,
      "Ukoliko": 4602,
      "glavni": 4603,
      "##pije": 4604,
      "Univer": 4605,
      "Raz": 4606,
      "pročita": 4607,
      "om": 4608,
      "Bog": 4609,
      "Milo": 4610,
      "##đene": 4611,
      "##nicija": 4612,
      "##vet": 4613,
      "##pan": 4614,
      "##rmi": 4615,
      "Tur": 4616,
      "06": 4617,
      "šte": 4618,
      "TV": 4619,
      "doći": 4620,
      "prve": 4621,
      "##cijski": 4622,
      "nedje": 4623,
      "osobi": 4624,
      "promije": 4625,
      "ver": 4626,
      "ozna": 4627,
      "bolji": 4628,
      "blago": 4629,
      "##vajući": 4630,
      "zemalja": 4631,
      "Naime": 4632,
      "dostup": 4633,
      "kolačiće": 4634,
      "##pira": 4635,
      "##ziju": 4636,
      "##tek": 4637,
      "Žu": 4638,
      "kilo": 4639,
      "##nča": 4640,
      "veče": 4641,
      "##miti": 4642,
      "prati": 4643,
      "##val": 4644,
      "prostora": 4645,
      "Slu": 4646,
      "stranici": 4647,
      "imate": 4648,
      "kupo": 4649,
      "izbje": 4650,
      "##voza": 4651,
      "napada": 4652,
      "##ćuje": 4653,
      "zaista": 4654,
      "sadržaj": 4655,
      "##žne": 4656,
      "manji": 4657,
      "nedosta": 4658,
      "##jskih": 4659,
      "fu": 4660,
      "akade": 4661,
      "##čen": 4662,
      "##lnika": 4663,
      "##ft": 4664,
      "##pom": 4665,
      "Ča": 4666,
      "razvoja": 4667,
      "##ženi": 4668,
      "##ster": 4669,
      "komp": 4670,
      "##dže": 4671,
      "ruko": 4672,
      "Voj": 4673,
      "##gosla": 4674,
      "djeca": 4675,
      "##kcija": 4676,
      "vise": 4677,
      "korisnika": 4678,
      "##biti": 4679,
      "##dri": 4680,
      "onaj": 4681,
      "##dnog": 4682,
      "troško": 4683,
      "##ćen": 4684,
      "##volja": 4685,
      "##lnost": 4686,
      "##vca": 4687,
      "vre": 4688,
      "Ke": 4689,
      "deo": 4690,
      "##stre": 4691,
      "bar": 4692,
      "08": 4693,
      "prvom": 4694,
      "500": 4695,
      "plani": 4696,
      "ispred": 4697,
      "Or": 4698,
      "##vijesti": 4699,
      "ogla": 4700,
      "nado": 4701,
      "##OR": 4702,
      "##rodne": 4703,
      "okoli": 4704,
      "##dnu": 4705,
      "##dine": 4706,
      "paž": 4707,
      "cent": 4708,
      "županije": 4709,
      "našim": 4710,
      "izmje": 4711,
      "##kraji": 4712,
      "sedam": 4713,
      "sezone": 4714,
      "strate": 4715,
      "Stra": 4716,
      "##ljiv": 4717,
      "radova": 4718,
      "##voz": 4719,
      "miliona": 4720,
      "veze": 4721,
      "žrt": 4722,
      "javno": 4723,
      "##rnih": 4724,
      "stanje": 4725,
      "priti": 4726,
      "započe": 4727,
      "##tina": 4728,
      "dati": 4729,
      "2019": 4730,
      "servi": 4731,
      "jezik": 4732,
      "##gina": 4733,
      "##BA": 4734,
      "uze": 4735,
      "razliku": 4736,
      "nudi": 4737,
      "nemaju": 4738,
      "##čica": 4739,
      "zadovolj": 4740,
      "jezika": 4741,
      "##LE": 4742,
      "##OVI": 4743,
      "shvati": 4744,
      "##nila": 4745,
      "##qu": 4746,
      "prepozna": 4747,
      "##ljenje": 4748,
      "duho": 4749,
      "redu": 4750,
      "##dese": 4751,
      "lica": 4752,
      "profesiona": 4753,
      "##kazi": 4754,
      "koma": 4755,
      "meto": 4756,
      "##oki": 4757,
      "##nuli": 4758,
      "sjedni": 4759,
      "##nili": 4760,
      "Josi": 4761,
      "kame": 4762,
      "potencija": 4763,
      "##vnost": 4764,
      "##jete": 4765,
      "poslova": 4766,
      "##vama": 4767,
      "hrvatske": 4768,
      "##ramo": 4769,
      "milijar": 4770,
      "##rila": 4771,
      "Wi": 4772,
      "##žena": 4773,
      "trans": 4774,
      "postavlja": 4775,
      "toj": 4776,
      "iste": 4777,
      "ljubav": 4778,
      "prikaza": 4779,
      "##njaka": 4780,
      "tempera": 4781,
      "##šni": 4782,
      "##boj": 4783,
      "##zora": 4784,
      "##mima": 4785,
      "##kove": 4786,
      "znanosti": 4787,
      "##sh": 4788,
      "Upra": 4789,
      "trenutno": 4790,
      "Također": 4791,
      "New": 4792,
      "sredstava": 4793,
      "##jam": 4794,
      "svakog": 4795,
      "##ram": 4796,
      "Mosta": 4797,
      "##nde": 4798,
      "Vlada": 4799,
      "ograni": 4800,
      "##tin": 4801,
      "##njeg": 4802,
      "siro": 4803,
      "##obra": 4804,
      "priliku": 4805,
      "ostale": 4806,
      "##isija": 4807,
      "##jska": 4808,
      "ranije": 4809,
      "str": 4810,
      "tera": 4811,
      "televi": 4812,
      "korištenja": 4813,
      "JE": 4814,
      "sklopu": 4815,
      "civi": 4816,
      "bla": 4817,
      "visoko": 4818,
      "Još": 4819,
      "naša": 4820,
      "novog": 4821,
      "##sima": 4822,
      "Ot": 4823,
      "kojom": 4824,
      "zaslu": 4825,
      "čiji": 4826,
      "voza": 4827,
      "as": 4828,
      "##njena": 4829,
      "##klu": 4830,
      "tijelo": 4831,
      "##nić": 4832,
      "provje": 4833,
      "mjeseca": 4834,
      "##iz": 4835,
      "rizi": 4836,
      "##LO": 4837,
      "Beogradu": 4838,
      "teo": 4839,
      "prvog": 4840,
      "##vak": 4841,
      "nismo": 4842,
      "kn": 4843,
      "Beograd": 4844,
      "##oo": 4845,
      "potpisa": 4846,
      "niz": 4847,
      "crkve": 4848,
      "dese": 4849,
      "sv": 4850,
      "proizvođa": 4851,
      "diplo": 4852,
      "vanj": 4853,
      "##lak": 4854,
      "iskustvo": 4855,
      "nalaze": 4856,
      "ruke": 4857,
      "Srp": 4858,
      "##ljivi": 4859,
      "prakti": 4860,
      "zajednice": 4861,
      "##rena": 4862,
      "##vred": 4863,
      "sadržaja": 4864,
      "##niju": 4865,
      "##škog": 4866,
      "##rnu": 4867,
      "želite": 4868,
      "društvo": 4869,
      "nakna": 4870,
      "klasi": 4871,
      "Vladi": 4872,
      "nared": 4873,
      "prošle": 4874,
      "##ruž": 4875,
      "##tić": 4876,
      "Tr": 4877,
      "Jer": 4878,
      "Gr": 4879,
      "uopće": 4880,
      "Kar": 4881,
      "mlade": 4882,
      "našeg": 4883,
      "crve": 4884,
      "našoj": 4885,
      "stvarno": 4886,
      "šu": 4887,
      "##snik": 4888,
      "domaći": 4889,
      "##nose": 4890,
      "predsjednika": 4891,
      "ljubavi": 4892,
      "##čina": 4893,
      "##čena": 4894,
      "iznena": 4895,
      "napre": 4896,
      "boja": 4897,
      "barem": 4898,
      "##cka": 4899,
      "Še": 4900,
      "potom": 4901,
      "sazna": 4902,
      "Kr": 4903,
      "člana": 4904,
      "Ana": 4905,
      "ispla": 4906,
      "rezultat": 4907,
      "sposob": 4908,
      "jos": 4909,
      "trebao": 4910,
      "kata": 4911,
      "izjavio": 4912,
      "znaju": 4913,
      "##tili": 4914,
      "##tnici": 4915,
      "##tanje": 4916,
      "znanja": 4917,
      "vrsta": 4918,
      "##svim": 4919,
      "##ise": 4920,
      "##zno": 4921,
      "mese": 4922,
      "##žite": 4923,
      "regiona": 4924,
      "##CA": 4925,
      "obzira": 4926,
      "putu": 4927,
      "centar": 4928,
      "van": 4929,
      "##vora": 4930,
      "dogodi": 4931,
      "svake": 4932,
      "dve": 4933,
      "##lozo": 4934,
      "snima": 4935,
      "##nisti": 4936,
      "##snim": 4937,
      "##rd": 4938,
      "##ćena": 4939,
      "presta": 4940,
      "##đuju": 4941,
      "##vci": 4942,
      "##kić": 4943,
      "duž": 4944,
      "name": 4945,
      "##pušta": 4946,
      "nemo": 4947,
      "stranke": 4948,
      "stoji": 4949,
      "jedino": 4950,
      "nekih": 4951,
      "početkom": 4952,
      "grupa": 4953,
      "zagre": 4954,
      "##tivna": 4955,
      "naći": 4956,
      "Dubro": 4957,
      "gradonače": 4958,
      "napraviti": 4959,
      "svjedo": 4960,
      "SE": 4961,
      "postu": 4962,
      "drugog": 4963,
      "km": 4964,
      "##škom": 4965,
      "##wa": 4966,
      "poklo": 4967,
      "stanju": 4968,
      "2007": 4969,
      "##vodom": 4970,
      "osam": 4971,
      "##dama": 4972,
      "odi": 4973,
      "razre": 4974,
      "novu": 4975,
      "##tila": 4976,
      "##snog": 4977,
      "##čuje": 4978,
      "supro": 4979,
      "epi": 4980,
      "skoro": 4981,
      "##rski": 4982,
      "##dana": 4983,
      "Zašto": 4984,
      "Koso": 4985,
      "fina": 4986,
      "boje": 4987,
      "korištenje": 4988,
      "svib": 4989,
      "##ns": 4990,
      "fran": 4991,
      "istraživanja": 4992,
      "##čuna": 4993,
      "snage": 4994,
      "najpo": 4995,
      "energije": 4996,
      "posljedi": 4997,
      "##vid": 4998,
      "##dro": 4999,
      "ostali": 5000,
      "03": 5001,
      "##vač": 5002,
      "##JU": 5003,
      "Vam": 5004,
      "##ljujući": 5005,
      "kola": 5006,
      "sredstva": 5007,
      "Ber": 5008,
      "Naravno": 5009,
      "godinama": 5010,
      "Bož": 5011,
      "##JI": 5012,
      "Ša": 5013,
      "prilago": 5014,
      "djevoj": 5015,
      "##intere": 5016,
      "prihvati": 5017,
      "35": 5018,
      "biv": 5019,
      "mijenja": 5020,
      "samosta": 5021,
      "##nko": 5022,
      "Dok": 5023,
      "tržištu": 5024,
      "njema": 5025,
      "##kvi": 5026,
      "potpo": 5027,
      "članka": 5028,
      "Evo": 5029,
      "počinje": 5030,
      "Oba": 5031,
      "Hercegovine": 5032,
      "poe": 5033,
      "trav": 5034,
      "##ćenje": 5035,
      "članova": 5036,
      "04": 5037,
      "Por": 5038,
      "##ljenja": 5039,
      "##bru": 5040,
      "položa": 5041,
      "Slove": 5042,
      "moja": 5043,
      "##tura": 5044,
      "male": 5045,
      "dolara": 5046,
      "Tom": 5047,
      "moglo": 5048,
      "dobili": 5049,
      "##pnja": 5050,
      "njihov": 5051,
      "pada": 5052,
      "muzi": 5053,
      "primjer": 5054,
      "preduze": 5055,
      "##liki": 5056,
      "##čnosti": 5057,
      "stre": 5058,
      "90": 5059,
      "##štvu": 5060,
      "teri": 5061,
      "vrste": 5062,
      "hoće": 5063,
      "sije": 5064,
      "##cira": 5065,
      "Ministarstva": 5066,
      "početka": 5067,
      "Svjet": 5068,
      "Ipak": 5069,
      "statu": 5070,
      "Dakle": 5071,
      "##UP": 5072,
      "ljubi": 5073,
      "nesre": 5074,
      "##tivnih": 5075,
      "dobra": 5076,
      "utakmice": 5077,
      "grupe": 5078,
      "sasvim": 5079,
      "##rina": 5080,
      "novim": 5081,
      "##čaja": 5082,
      "Vas": 5083,
      "kredi": 5084,
      "##cioni": 5085,
      "poljoprivre": 5086,
      "##njim": 5087,
      "nekog": 5088,
      "##nskim": 5089,
      "##lla": 5090,
      "##tine": 5091,
      "dijelu": 5092,
      "nitko": 5093,
      "196": 5094,
      "projekt": 5095,
      "##fu": 5096,
      "metara": 5097,
      "radni": 5098,
      "parla": 5099,
      "uvek": 5100,
      "indi": 5101,
      "stanovnika": 5102,
      "evro": 5103,
      "ukupno": 5104,
      "karije": 5105,
      "san": 5106,
      "##nku": 5107,
      "##nijeti": 5108,
      "ponovno": 5109,
      "jeste": 5110,
      "glasa": 5111,
      "učenika": 5112,
      "##čnoj": 5113,
      "vu": 5114,
      "##reni": 5115,
      "Ministarstvo": 5116,
      "##drav": 5117,
      "neku": 5118,
      "##vcu": 5119,
      "zele": 5120,
      "05": 5121,
      "različitih": 5122,
      "##jedinje": 5123,
      "staro": 5124,
      "##šim": 5125,
      "sluša": 5126,
      "##čije": 5127,
      "##risa": 5128,
      "savrše": 5129,
      "javnosti": 5130,
      "sama": 5131,
      "vraća": 5132,
      "pošte": 5133,
      "ume": 5134,
      "kolek": 5135,
      "##meni": 5136,
      "kazne": 5137,
      "##jni": 5138,
      "DO": 5139,
      "uto": 5140,
      "podršku": 5141,
      "listopada": 5142,
      "kluba": 5143,
      "evo": 5144,
      "Šta": 5145,
      "Međuna": 5146,
      "isključivo": 5147,
      "##čari": 5148,
      "daleko": 5149,
      "promo": 5150,
      "##jne": 5151,
      "##cebo": 5152,
      "##tr": 5153,
      "najmanje": 5154,
      "npr": 5155,
      "albu": 5156,
      "##mova": 5157,
      "Naciona": 5158,
      "priče": 5159,
      "tradiciona": 5160,
      "psiho": 5161,
      "kana": 5162,
      "Hrvatsku": 5163,
      "svakako": 5164,
      "učin": 5165,
      "##SS": 5166,
      "navija": 5167,
      "cijeli": 5168,
      "##kretni": 5169,
      "organizacije": 5170,
      "dao": 5171,
      "Prvi": 5172,
      "nastu": 5173,
      "zavi": 5174,
      "krea": 5175,
      "temu": 5176,
      "klub": 5177,
      "##dić": 5178,
      "najveći": 5179,
      "obave": 5180,
      "Sada": 5181,
      "mail": 5182,
      "važno": 5183,
      "hrvatskih": 5184,
      "RA": 5185,
      "novca": 5186,
      "07": 5187,
      "novom": 5188,
      "oblasti": 5189,
      "glo": 5190,
      "regu": 5191,
      "inf": 5192,
      "dođe": 5193,
      "osnovu": 5194,
      "##stoje": 5195,
      "##deset": 5196,
      "unutra": 5197,
      "slike": 5198,
      "##ksu": 5199,
      "cijena": 5200,
      "prijatelj": 5201,
      "dobri": 5202,
      "80": 5203,
      "iznad": 5204,
      "Kori": 5205,
      "zbi": 5206,
      "priprema": 5207,
      "tiče": 5208,
      "##pto": 5209,
      "##tel": 5210,
      "inicija": 5211,
      "##mica": 5212,
      "##važ": 5213,
      "Bio": 5214,
      "kampa": 5215,
      "##zom": 5216,
      "##tisti": 5217,
      "DA": 5218,
      "biće": 5219,
      "strani": 5220,
      "preuze": 5221,
      "postaje": 5222,
      "interesa": 5223,
      "##pija": 5224,
      "##mes": 5225,
      "45": 5226,
      "##čine": 5227,
      "zu": 5228,
      "petak": 5229,
      "sporazu": 5230,
      "smanji": 5231,
      "##stoja": 5232,
      "njihova": 5233,
      "finansi": 5234,
      "direktor": 5235,
      "Sveučilišta": 5236,
      "Mila": 5237,
      "pripada": 5238,
      "##ksa": 5239,
      "dogovo": 5240,
      "takve": 5241,
      "prosi": 5242,
      "okre": 5243,
      "uzima": 5244,
      "miro": 5245,
      "ode": 5246,
      "osni": 5247,
      "og": 5248,
      "ožu": 5249,
      "##MI": 5250,
      "orga": 5251,
      "sistem": 5252,
      "##dba": 5253,
      "apa": 5254,
      "##kako": 5255,
      "očekuje": 5256,
      "imovi": 5257,
      "Mislim": 5258,
      "70": 5259,
      "KM": 5260,
      "odluke": 5261,
      "smislu": 5262,
      "manife": 5263,
      "igrača": 5264,
      "SP": 5265,
      "##miju": 5266,
      "pravila": 5267,
      "##tac": 5268,
      "presu": 5269,
      "demokra": 5270,
      "Sarajevo": 5271,
      "koga": 5272,
      "##šne": 5273,
      "obrazovanja": 5274,
      "Bar": 5275,
      "postao": 5276,
      "Tri": 5277,
      "sutra": 5278,
      "##kazuju": 5279,
      "##gita": 5280,
      "loše": 5281,
      "##MO": 5282,
      "##21": 5283,
      "periodu": 5284,
      "našem": 5285,
      "##dim": 5286,
      "inače": 5287,
      "##BI": 5288,
      "savez": 5289,
      "##rko": 5290,
      "školi": 5291,
      "vjerojatno": 5292,
      "stvori": 5293,
      "reze": 5294,
      "##neta": 5295,
      "pak": 5296,
      "Jugosla": 5297,
      "izbora": 5298,
      "jest": 5299,
      "##vale": 5300,
      "čine": 5301,
      "muze": 5302,
      "Osno": 5303,
      "takav": 5304,
      "##prija": 5305,
      "čove": 5306,
      "filma": 5307,
      "propisa": 5308,
      "organizacija": 5309,
      "##štini": 5310,
      "##mer": 5311,
      "defini": 5312,
      "podno": 5313,
      "hrane": 5314,
      "prenosi": 5315,
      "Cha": 5316,
      "PRO": 5317,
      "ose": 5318,
      "Dobro": 5319,
      "##zme": 5320,
      "300": 5321,
      "prista": 5322,
      "odigra": 5323,
      "dodje": 5324,
      "##naca": 5325,
      "tisuća": 5326,
      "predlo": 5327,
      "zapošlja": 5328,
      "##godišnji": 5329,
      "##lovima": 5330,
      "ispita": 5331,
      "##sci": 5332,
      "##tive": 5333,
      "Progra": 5334,
      "##vača": 5335,
      "njoj": 5336,
      "iskoristi": 5337,
      "ocje": 5338,
      "studija": 5339,
      "pobe": 5340,
      "zastup": 5341,
      "preki": 5342,
      "karti": 5343,
      "##voda": 5344,
      "ovak": 5345,
      "uprave": 5346,
      "jedini": 5347,
      "vid": 5348,
      "takmi": 5349,
      "##RU": 5350,
      "##tije": 5351,
      "račun": 5352,
      "odnose": 5353,
      "saop": 5354,
      "Con": 5355,
      "##ali": 5356,
      "2000": 5357,
      "##rona": 5358,
      "naglasi": 5359,
      "uključujući": 5360,
      "##SA": 5361,
      "razvija": 5362,
      "matemati": 5363,
      "kažu": 5364,
      "struktu": 5365,
      "početku": 5366,
      "umjetni": 5367,
      "https": 5368,
      "##lili": 5369,
      "navi": 5370,
      "ovako": 5371,
      "##žna": 5372,
      "##cke": 5373,
      "anali": 5374,
      "našu": 5375,
      "ostalih": 5376,
      "##šavanje": 5377,
      "##zuje": 5378,
      "smanje": 5379,
      "zaintere": 5380,
      "Zla": 5381,
      "prirod": 5382,
      "većina": 5383,
      "Hrvatski": 5384,
      "upla": 5385,
      "##laska": 5386,
      "##gama": 5387,
      "stalno": 5388,
      "##sjeća": 5389,
      "ukra": 5390,
      "autor": 5391,
      "##var": 5392,
      "##hom": 5393,
      "##kim": 5394,
      "Gi": 5395,
      "ugovor": 5396,
      "Treba": 5397,
      "smrti": 5398,
      "srije": 5399,
      "sc": 5400,
      "pacije": 5401,
      "##raž": 5402,
      "pronaći": 5403,
      "dobije": 5404,
      "turni": 5405,
      "KA": 5406,
      "dokaza": 5407,
      "upa": 5408,
      "Skup": 5409,
      "cijene": 5410,
      "nju": 5411,
      "vlast": 5412,
      "posled": 5413,
      "suko": 5414,
      "##vane": 5415,
      "lijepo": 5416,
      "izrazi": 5417,
      "##siti": 5418,
      "##dnim": 5419,
      "promjene": 5420,
      "usko": 5421,
      "##est": 5422,
      "vjer": 5423,
      "online": 5424,
      "Sad": 5425,
      "eduka": 5426,
      "##dge": 5427,
      "tvrtke": 5428,
      "gore": 5429,
      "ulogu": 5430,
      "Osta": 5431,
      "nega": 5432,
      "##ght": 5433,
      "dakle": 5434,
      "##đenju": 5435,
      "##njeno": 5436,
      "RS": 5437,
      "Ško": 5438,
      "##zmu": 5439,
      "##ljive": 5440,
      "reda": 5441,
      "traže": 5442,
      "MA": 5443,
      "Izra": 5444,
      "##menata": 5445,
      "##njaci": 5446,
      "##valo": 5447,
      "došao": 5448,
      "##ranju": 5449,
      "dece": 5450,
      "svibnja": 5451,
      "znati": 5452,
      "##NS": 5453,
      "Gor": 5454,
      "em": 5455,
      "##dove": 5456,
      "##vam": 5457,
      "obliku": 5458,
      "tekst": 5459,
      "##raka": 5460,
      "nekom": 5461,
      "##STI": 5462,
      "vec": 5463,
      "podu": 5464,
      "prosla": 5465,
      "SDP": 5466,
      "mjesec": 5467,
      "Jedan": 5468,
      "Možda": 5469,
      "časo": 5470,
      "vijesti": 5471,
      "##blju": 5472,
      "##ou": 5473,
      "02": 5474,
      "sura": 5475,
      "državi": 5476,
      "Pos": 5477,
      "emo": 5478,
      "##čito": 5479,
      "zagreba": 5480,
      "takođe": 5481,
      "mjere": 5482,
      "##stoj": 5483,
      "sadrži": 5484,
      "##stom": 5485,
      "rujna": 5486,
      "super": 5487,
      "sveča": 5488,
      "##niku": 5489,
      "##clo": 5490,
      "an": 5491,
      "MO": 5492,
      "##ćenja": 5493,
      "Itali": 5494,
      "##mna": 5495,
      "provo": 5496,
      "povijesti": 5497,
      "##haha": 5498,
      "prof": 5499,
      "teži": 5500,
      "objasni": 5501,
      "upisa": 5502,
      "medija": 5503,
      "##rnik": 5504,
      "IZ": 5505,
      "pregleda": 5506,
      "vidim": 5507,
      "radnika": 5508,
      "ravno": 5509,
      "svemu": 5510,
      "##zv": 5511,
      "id": 5512,
      "##sen": 5513,
      "Europe": 5514,
      "Bosni": 5515,
      "funkciona": 5516,
      "zdravlje": 5517,
      "##šnjem": 5518,
      "##pt": 5519,
      "##ntima": 5520,
      "##les": 5521,
      "najče": 5522,
      "Ono": 5523,
      "##čević": 5524,
      "energe": 5525,
      "##vka": 5526,
      "##rent": 5527,
      "##bila": 5528,
      "umjesto": 5529,
      "Agen": 5530,
      "javlja": 5531,
      "roku": 5532,
      "36": 5533,
      "učiniti": 5534,
      "##formi": 5535,
      "prora": 5536,
      "supru": 5537,
      "kombina": 5538,
      "Srpske": 5539,
      "proši": 5540,
      "kuhi": 5541,
      "##snika": 5542,
      "subotu": 5543,
      "školu": 5544,
      "krimina": 5545,
      "rezultate": 5546,
      "Hvala": 5547,
      "##zan": 5548,
      "samou": 5549,
      "proces": 5550,
      "članovi": 5551,
      "razumije": 5552,
      "Hu": 5553,
      "##stina": 5554,
      "##kada": 5555,
      "##CE": 5556,
      "susta": 5557,
      "Br": 5558,
      "Ad": 5559,
      "pogre": 5560,
      "##ministra": 5561,
      "upozo": 5562,
      "veliku": 5563,
      "previše": 5564,
      "ur": 5565,
      "godišnji": 5566,
      "odluka": 5567,
      "zaštiti": 5568,
      "ulaga": 5569,
      "##cijskih": 5570,
      "google": 5571,
      "##tnije": 5572,
      "prosje": 5573,
      "omoguća": 5574,
      "marke": 5575,
      "ovla": 5576,
      "tvrdi": 5577,
      "##pedia": 5578,
      "imena": 5579,
      "svojom": 5580,
      "hrvatskog": 5581,
      "održati": 5582,
      "mreža": 5583,
      "dela": 5584,
      "Ili": 5585,
      "Radi": 5586,
      "česti": 5587,
      "kapita": 5588,
      "Slobo": 5589,
      "ošte": 5590,
      "neop": 5591,
      "Pravi": 5592,
      "ugovora": 5593,
      "##njuju": 5594,
      "##lar": 5595,
      "##veli": 5596,
      "podaci": 5597,
      "##šna": 5598,
      "zaključi": 5599,
      "muškar": 5600,
      "##cyclo": 5601,
      "forma": 5602,
      "čime": 5603,
      "rat": 5604,
      "nagla": 5605,
      "blizi": 5606,
      "##chi": 5607,
      "reži": 5608,
      "njihovih": 5609,
      "odbora": 5610,
      "##struktu": 5611,
      "pode": 5612,
      "huma": 5613,
      "##10": 5614,
      "pogle": 5615,
      "fon": 5616,
      "##čice": 5617,
      "sistema": 5618,
      "jeziku": 5619,
      "Pose": 5620,
      "uku": 5621,
      "Facebo": 5622,
      "Mostaru": 5623,
      "Us": 5624,
      "ugro": 5625,
      "umi": 5626,
      "##skoga": 5627,
      "kapa": 5628,
      "travnja": 5629,
      "građani": 5630,
      "razvoju": 5631,
      "##veta": 5632,
      "##onal": 5633,
      "Federa": 5634,
      "manifesta": 5635,
      "##wi": 5636,
      "francu": 5637,
      "mnoge": 5638,
      "Institu": 5639,
      "##teljica": 5640,
      "##ziji": 5641,
      "##nk": 5642,
      "Boga": 5643,
      "izgra": 5644,
      "##žalost": 5645,
      "##šavanja": 5646,
      "ruku": 5647,
      "jednoj": 5648,
      "sat": 5649,
      "Nova": 5650,
      "##lović": 5651,
      "čovjeka": 5652,
      "##giju": 5653,
      "##vljen": 5654,
      "tzv": 5655,
      "koša": 5656,
      "Osije": 5657,
      "##ras": 5658,
      "##ad": 5659,
      "plu": 5660,
      "broju": 5661,
      "##AA": 5662,
      "##stiti": 5663,
      "trebali": 5664,
      "##tovi": 5665,
      "dobila": 5666,
      "##ćom": 5667,
      "##ger": 5668,
      "kvalitet": 5669,
      "vrhun": 5670,
      "nede": 5671,
      "materijala": 5672,
      "izno": 5673,
      "invali": 5674,
      "jedinstve": 5675,
      "##žbu": 5676,
      "došlo": 5677,
      "##vljeno": 5678,
      "htm": 5679,
      "naz": 5680,
      "odluku": 5681,
      "nadlež": 5682,
      "ponedje": 5683,
      "širo": 5684,
      "##čava": 5685,
      "Vuči": 5686,
      "formi": 5687,
      "ubr": 5688,
      "##šten": 5689,
      "vama": 5690,
      "Taj": 5691,
      "partne": 5692,
      "BI": 5693,
      "##mili": 5694,
      "uvo": 5695,
      "##vljuje": 5696,
      "##EN": 5697,
      "lipnja": 5698,
      "more": 5699,
      "smrt": 5700,
      "gosti": 5701,
      "##pili": 5702,
      "velja": 5703,
      "insta": 5704,
      "pogi": 5705,
      "##isao": 5706,
      "##pila": 5707,
      "##lega": 5708,
      "razgovara": 5709,
      "izvrši": 5710,
      "simbo": 5711,
      "mesto": 5712,
      "RH": 5713,
      "##čili": 5714,
      "stoljeća": 5715,
      "pli": 5716,
      "##vano": 5717,
      "##let": 5718,
      "##lena": 5719,
      "##ws": 5720,
      "momča": 5721,
      "##rodni": 5722,
      "Novo": 5723,
      "proizvode": 5724,
      "Sje": 5725,
      "drugu": 5726,
      "oslobo": 5727,
      "##sio": 5728,
      "Haj": 5729,
      "pake": 5730,
      "Bilo": 5731,
      "##bla": 5732,
      "anga": 5733,
      "bira": 5734,
      "dijela": 5735,
      "sastav": 5736,
      "Doda": 5737,
      "dolaze": 5738,
      "Rusi": 5739,
      "med": 5740,
      "OD": 5741,
      "siječ": 5742,
      "podije": 5743,
      "##mora": 5744,
      "##pora": 5745,
      "2006": 5746,
      "neprija": 5747,
      "##tla": 5748,
      "pou": 5749,
      "##ljka": 5750,
      "##ntu": 5751,
      "svaku": 5752,
      "maksi": 5753,
      "navo": 5754,
      "seku": 5755,
      "MI": 5756,
      "##ntona": 5757,
      "njegovu": 5758,
      "ističe": 5759,
      "Cu": 5760,
      "##čnost": 5761,
      "##čaje": 5762,
      "čije": 5763,
      "##mos": 5764,
      "odnosa": 5765,
      "##reno": 5766,
      "##loj": 5767,
      "elektri": 5768,
      "##ženo": 5769,
      "Koliko": 5770,
      "pregle": 5771,
      "##vski": 5772,
      "##vnika": 5773,
      "oruž": 5774,
      "izabra": 5775,
      "krivi": 5776,
      "sub": 5777,
      "područje": 5778,
      "##ćeno": 5779,
      "plan": 5780,
      "##tivnog": 5781,
      "##mske": 5782,
      "organizaciji": 5783,
      "##tnoj": 5784,
      "promet": 5785,
      "rješenja": 5786,
      "Čo": 5787,
      "##menu": 5788,
      "zdravlja": 5789,
      "##tike": 5790,
      "vremenu": 5791,
      "##pit": 5792,
      "Gru": 5793,
      "voda": 5794,
      "politike": 5795,
      "stavlja": 5796,
      "##gar": 5797,
      "Marija": 5798,
      "temelju": 5799,
      "javnog": 5800,
      "##lizacije": 5801,
      "##us": 5802,
      "nekada": 5803,
      "##tual": 5804,
      "pokazuje": 5805,
      "##zirati": 5806,
      "izazo": 5807,
      "##nsku": 5808,
      "##vlada": 5809,
      "najvaž": 5810,
      "32": 5811,
      "ideja": 5812,
      "##ćoj": 5813,
      "preuzima": 5814,
      "govore": 5815,
      "tjedna": 5816,
      "projekata": 5817,
      "##can": 5818,
      "ovde": 5819,
      "2005": 5820,
      "Ove": 5821,
      "konti": 5822,
      "##stvima": 5823,
      "##rigina": 5824,
      "##tanja": 5825,
      "tero": 5826,
      "četvrtak": 5827,
      "nastavlja": 5828,
      "##put": 5829,
      "priču": 5830,
      "pame": 5831,
      "doče": 5832,
      "##rijama": 5833,
      "Cije": 5834,
      "##tika": 5835,
      "reak": 5836,
      "dobre": 5837,
      "globa": 5838,
      "stabi": 5839,
      "##snom": 5840,
      "##vit": 5841,
      "37": 5842,
      "zahte": 5843,
      "##lon": 5844,
      "##mpi": 5845,
      "##ten": 5846,
      "posu": 5847,
      "obeća": 5848,
      "Ivana": 5849,
      "odred": 5850,
      "noć": 5851,
      "dodao": 5852,
      "pristupa": 5853,
      "potpunosti": 5854,
      "NATO": 5855,
      "Lon": 5856,
      "trebaju": 5857,
      "partner": 5858,
      "pobije": 5859,
      "automobila": 5860,
      "ekipa": 5861,
      "šan": 5862,
      "Boš": 5863,
      "poslove": 5864,
      "industri": 5865,
      "proba": 5866,
      "pridrža": 5867,
      "Regi": 5868,
      "javne": 5869,
      "neopho": 5870,
      "ostati": 5871,
      "Pogleda": 5872,
      "resto": 5873,
      "cilje": 5874,
      "##šan": 5875,
      "##tali": 5876,
      "pravu": 5877,
      "centru": 5878,
      "velikog": 5879,
      "priho": 5880,
      "33": 5881,
      "##bilje": 5882,
      "učenici": 5883,
      "##rović": 5884,
      "Zem": 5885,
      "obrati": 5886,
      "noći": 5887,
      "dalj": 5888,
      "pokri": 5889,
      "##žnja": 5890,
      "sed": 5891,
      "##jskim": 5892,
      "početak": 5893,
      "##ct": 5894,
      "##tosti": 5895,
      "Car": 5896,
      "##rene": 5897,
      "nedavno": 5898,
      "logi": 5899,
      "kože": 5900,
      "vole": 5901,
      "##SP": 5902,
      "##toli": 5903,
      "prostoru": 5904,
      "oce": 5905,
      "##toru": 5906,
      "uvjetima": 5907,
      "moramo": 5908,
      "sjedi": 5909,
      "poziv": 5910,
      "##tite": 5911,
      "##rku": 5912,
      "##pravda": 5913,
      "##ljenih": 5914,
      "##gri": 5915,
      "provodi": 5916,
      "profeso": 5917,
      "lop": 5918,
      "Vaše": 5919,
      "tebe": 5920,
      "kompanija": 5921,
      "pob": 5922,
      "nes": 5923,
      "##lma": 5924,
      "različite": 5925,
      "banka": 5926,
      "banke": 5927,
      "Balka": 5928,
      "##lama": 5929,
      "digita": 5930,
      "situacija": 5931,
      "##logu": 5932,
      "##LU": 5933,
      "Obja": 5934,
      "##hani": 5935,
      "nepri": 5936,
      "##hvaća": 5937,
      "##lozi": 5938,
      "juna": 5939,
      "trebala": 5940,
      "članak": 5941,
      "velikim": 5942,
      "Kod": 5943,
      "Radio": 5944,
      "kazali": 5945,
      "tvo": 5946,
      "nastupa": 5947,
      "##dimo": 5948,
      "##slav": 5949,
      "##fti": 5950,
      "kakav": 5951,
      "Aleksa": 5952,
      "ala": 5953,
      "klije": 5954,
      "##deći": 5955,
      "ponude": 5956,
      "##šen": 5957,
      "##kse": 5958,
      "Mogu": 5959,
      "poko": 5960,
      "propa": 5961,
      "##lila": 5962,
      "probleme": 5963,
      "snim": 5964,
      "fotografija": 5965,
      "povodom": 5966,
      "budućnosti": 5967,
      "soli": 5968,
      "sudio": 5969,
      "##am": 5970,
      "počeo": 5971,
      "mišljenje": 5972,
      "ožujka": 5973,
      "##cki": 5974,
      "sjeća": 5975,
      "##metara": 5976,
      "##rine": 5977,
      "##jevima": 5978,
      "traje": 5979,
      "međutim": 5980,
      "činjenica": 5981,
      "papi": 5982,
      "##lacije": 5983,
      "bitno": 5984,
      "spro": 5985,
      "dubo": 5986,
      "38": 5987,
      "##snici": 5988,
      "kontroli": 5989,
      "uskoro": 5990,
      "zemlju": 5991,
      "procje": 5992,
      "održana": 5993,
      "##tle": 5994,
      "snaga": 5995,
      "odnos": 5996,
      "fakulteta": 5997,
      "Župa": 5998,
      "srca": 5999,
      "nemogu": 6000,
      "##gna": 6001,
      "##vljeni": 6002,
      "znamo": 6003,
      "##klanja": 6004,
      "gori": 6005,
      "##id": 6006,
      "ostaje": 6007,
      "ostvari": 6008,
      "speci": 6009,
      "cr": 6010,
      "##bur": 6011,
      "nazivom": 6012,
      "##lle": 6013,
      "##min": 6014,
      "##fici": 6015,
      "##jskom": 6016,
      "vike": 6017,
      "viru": 6018,
      "fak": 6019,
      "nesto": 6020,
      "telefon": 6021,
      "testi": 6022,
      "građevi": 6023,
      "rješenje": 6024,
      "Drugi": 6025,
      "Gore": 6026,
      "zemljama": 6027,
      "##vimo": 6028,
      "Encyclo": 6029,
      "##kte": 6030,
      "ugovo": 6031,
      "lakše": 6032,
      "Poli": 6033,
      "##janje": 6034,
      "pogled": 6035,
      "sporta": 6036,
      "zvije": 6037,
      "voli": 6038,
      "mlije": 6039,
      "Dan": 6040,
      "njegovim": 6041,
      "polovi": 6042,
      "poziva": 6043,
      "Bez": 6044,
      "ulaz": 6045,
      "prijave": 6046,
      "ostalim": 6047,
      "##NU": 6048,
      "želim": 6049,
      "razlog": 6050,
      "onima": 6051,
      "postupak": 6052,
      "##SI": 6053,
      "baze": 6054,
      "##noga": 6055,
      "ostalo": 6056,
      "sveta": 6057,
      "##vljena": 6058,
      "##vat": 6059,
      "##dbe": 6060,
      "##vilo": 6061,
      "kapaci": 6062,
      "prave": 6063,
      "obrazovanje": 6064,
      "##rate": 6065,
      "done": 6066,
      "društvu": 6067,
      "crno": 6068,
      "Spa": 6069,
      "bivši": 6070,
      "##logiju": 6071,
      "##rat": 6072,
      "pogotovo": 6073,
      "kompanije": 6074,
      "revi": 6075,
      "Knji": 6076,
      "Ov": 6077,
      "nauči": 6078,
      "##zin": 6079,
      "adresu": 6080,
      "objavio": 6081,
      "manda": 6082,
      "reko": 6083,
      "##ših": 6084,
      "Sarajevu": 6085,
      "borbe": 6086,
      "političke": 6087,
      "razini": 6088,
      "veće": 6089,
      "##dago": 6090,
      "obno": 6091,
      "##diji": 6092,
      "došli": 6093,
      "obično": 6094,
      "##đivanje": 6095,
      "##obraća": 6096,
      "igru": 6097,
      "##tru": 6098,
      "Mje": 6099,
      "policije": 6100,
      "##mila": 6101,
      "Poče": 6102,
      "snagu": 6103,
      "odgovaraju": 6104,
      "izaz": 6105,
      "efe": 6106,
      "komentar": 6107,
      "suradnji": 6108,
      "proizvodi": 6109,
      "svetu": 6110,
      "svu": 6111,
      "pretra": 6112,
      "Špa": 6113,
      "##DEO": 6114,
      "konkre": 6115,
      "##žem": 6116,
      "iskre": 6117,
      "naslo": 6118,
      "volje": 6119,
      "##solu": 6120,
      "korak": 6121,
      "##ara": 6122,
      "##djela": 6123,
      "izuzetno": 6124,
      "##fri": 6125,
      "Ču": 6126,
      "proved": 6127,
      "##mentu": 6128,
      "cm": 6129,
      "model": 6130,
      "##rs": 6131,
      "nagrade": 6132,
      "##jnih": 6133,
      "rast": 6134,
      "blizini": 6135,
      "Općine": 6136,
      "popra": 6137,
      "kratko": 6138,
      "bici": 6139,
      "novinar": 6140,
      "Projek": 6141,
      "##ruje": 6142,
      "nekretni": 6143,
      "##rup": 6144,
      "##dnja": 6145,
      "povr": 6146,
      "autora": 6147,
      "stoga": 6148,
      "prirode": 6149,
      "datu": 6150,
      "##koho": 6151,
      "##ptem": 6152,
      "nadzor": 6153,
      "##plom": 6154,
      "organizo": 6155,
      "NI": 6156,
      "Europske": 6157,
      "susje": 6158,
      "postati": 6159,
      "parki": 6160,
      "godišnje": 6161,
      "##rastruktu": 6162,
      "šeće": 6163,
      "srpski": 6164,
      "ravna": 6165,
      "VIDEO": 6166,
      "##shi": 6167,
      "##vela": 6168,
      "oču": 6169,
      "Petro": 6170,
      "odbra": 6171,
      "dinara": 6172,
      "reče": 6173,
      "##ни": 6174,
      "roditelji": 6175,
      "uli": 6176,
      "tip": 6177,
      "usmje": 6178,
      "##zori": 6179,
      "gradova": 6180,
      "##tost": 6181,
      "Fakul": 6182,
      "stavo": 6183,
      "Split": 6184,
      "zove": 6185,
      "razgovo": 6186,
      "budže": 6187,
      "##novima": 6188,
      "portal": 6189,
      "napisao": 6190,
      "engleski": 6191,
      "zajednica": 6192,
      "zatvore": 6193,
      "namije": 6194,
      "##đenih": 6195,
      "Upravo": 6196,
      "##ee": 6197,
      "Am": 6198,
      "Wa": 6199,
      "RE": 6200,
      "krvi": 6201,
      "utakmica": 6202,
      "meda": 6203,
      "policija": 6204,
      "odsto": 6205,
      "najčešće": 6206,
      "vodu": 6207,
      "uki": 6208,
      "Centra": 6209,
      "srpnja": 6210,
      "Tele": 6211,
      "ponekad": 6212,
      "riječima": 6213,
      "##jekat": 6214,
      "opštine": 6215,
      "PD": 6216,
      "spomi": 6217,
      "##jmo": 6218,
      "Sport": 6219,
      "zahvaljujući": 6220,
      "potica": 6221,
      "prav": 6222,
      "Crne": 6223,
      "lokalne": 6224,
      "Kre": 6225,
      "komple": 6226,
      "sin": 6227,
      "daju": 6228,
      "Rado": 6229,
      "##šćenje": 6230,
      "Već": 6231,
      "napla": 6232,
      "pribli": 6233,
      "njim": 6234,
      "##čene": 6235,
      "prikuplja": 6236,
      "##troga": 6237,
      "org": 6238,
      "##peri": 6239,
      "karakte": 6240,
      "okto": 6241,
      "##ya": 6242,
      "post": 6243,
      "Stoga": 6244,
      "Marti": 6245,
      "prosinca": 6246,
      "##ruža": 6247,
      "detalj": 6248,
      "##laca": 6249,
      "niste": 6250,
      "zvani": 6251,
      "Hercegovini": 6252,
      "bre": 6253,
      "unije": 6254,
      "iznim": 6255,
      "##STA": 6256,
      "siječnja": 6257,
      "izvor": 6258,
      "##žene": 6259,
      "##ntno": 6260,
      "vodo": 6261,
      "ljepo": 6262,
      "##tija": 6263,
      "##šnju": 6264,
      "osigura": 6265,
      "sni": 6266,
      "##jica": 6267,
      "moć": 6268,
      "##sigu": 6269,
      "Os": 6270,
      "##ir": 6271,
      "pretpo": 6272,
      "ubije": 6273,
      "##por": 6274,
      "Mate": 6275,
      "prodaje": 6276,
      "PRI": 6277,
      "Micha": 6278,
      "##raca": 6279,
      "2001": 6280,
      "agre": 6281,
      "bisku": 6282,
      "infrastruktu": 6283,
      "34": 6284,
      "zadu": 6285,
      "##rin": 6286,
      "##tam": 6287,
      "suo": 6288,
      "Dr": 6289,
      "njihovim": 6290,
      "saobraća": 6291,
      "bivše": 6292,
      "##aa": 6293,
      "mar": 6294,
      "prvih": 6295,
      "sigurnosti": 6296,
      "Doma": 6297,
      "Nikola": 6298,
      "html": 6299,
      "##sić": 6300,
      "kvaliteta": 6301,
      "klubo": 6302,
      "##rata": 6303,
      "zatra": 6304,
      "atmos": 6305,
      "##nut": 6306,
      "origina": 6307,
      "čvr": 6308,
      "fotografije": 6309,
      "morate": 6310,
      "gol": 6311,
      "##šio": 6312,
      "dali": 6313,
      "utorak": 6314,
      "Luka": 6315,
      "##kedo": 6316,
      "inova": 6317,
      "##tivan": 6318,
      "čet": 6319,
      "vratiti": 6320,
      "skri": 6321,
      "potrebna": 6322,
      "odabra": 6323,
      "drugima": 6324,
      "jača": 6325,
      "##štaja": 6326,
      "prodaju": 6327,
      "Tije": 6328,
      "predme": 6329,
      "##KE": 6330,
      "##GA": 6331,
      "možeš": 6332,
      "Slavo": 6333,
      "krei": 6334,
      "Hrvatskog": 6335,
      "mediji": 6336,
      "rela": 6337,
      "##loge": 6338,
      "uti": 6339,
      "##stveno": 6340,
      "##ljom": 6341,
      "mreže": 6342,
      "ratu": 6343,
      "Wil": 6344,
      "nevje": 6345,
      "##njeni": 6346,
      "odusta": 6347,
      "##ard": 6348,
      "slobodno": 6349,
      "Pored": 6350,
      "For": 6351,
      "##vot": 6352,
      "GO": 6353,
      "preci": 6354,
      "vina": 6355,
      "obrade": 6356,
      "komenti": 6357,
      "upora": 6358,
      "istina": 6359,
      "##likom": 6360,
      "##isla": 6361,
      "##duje": 6362,
      "jednako": 6363,
      "##džbe": 6364,
      "podacima": 6365,
      "Crve": 6366,
      "budući": 6367,
      "gradi": 6368,
      "##ljev": 6369,
      "##ziva": 6370,
      "gor": 6371,
      "načina": 6372,
      "kuha": 6373,
      "Cro": 6374,
      "Tko": 6375,
      "tam": 6376,
      "##ст": 6377,
      "proizvodnje": 6378,
      "udruge": 6379,
      "pat": 6380,
      "##voren": 6381,
      "dječ": 6382,
      "vrijednost": 6383,
      "pomoću": 6384,
      "instru": 6385,
      "predi": 6386,
      "Com": 6387,
      "laga": 6388,
      "list": 6389,
      "Tuz": 6390,
      "2004": 6391,
      "nikako": 6392,
      "statisti": 6393,
      "utica": 6394,
      "djelatnosti": 6395,
      "##čila": 6396,
      "##sama": 6397,
      "ska": 6398,
      "##PA": 6399,
      "molit": 6400,
      "administra": 6401,
      "novine": 6402,
      "##šnjih": 6403,
      "poža": 6404,
      "##vinu": 6405,
      "##mić": 6406,
      "Jedno": 6407,
      "novča": 6408,
      "San": 6409,
      "drugoj": 6410,
      "umjetnosti": 6411,
      "##ote": 6412,
      "dodatno": 6413,
      "195": 6414,
      "veća": 6415,
      "##dnije": 6416,
      "srce": 6417,
      "prilika": 6418,
      "red": 6419,
      "vijeća": 6420,
      "Jedi": 6421,
      "ujedno": 6422,
      "mesta": 6423,
      "SR": 6424,
      "pridru": 6425,
      "razno": 6426,
      "ured": 6427,
      "##zacije": 6428,
      "##luju": 6429,
      "vese": 6430,
      "nao": 6431,
      "stanja": 6432,
      "Najbo": 6433,
      "politički": 6434,
      "pristu": 6435,
      "roditelja": 6436,
      "zgrade": 6437,
      "pažnju": 6438,
      "poti": 6439,
      "##ljep": 6440,
      "dro": 6441,
      "sprije": 6442,
      "##posle": 6443,
      "budućnost": 6444,
      "obvez": 6445,
      "##veni": 6446,
      "##ljda": 6447,
      "Informa": 6448,
      "samom": 6449,
      "Sti": 6450,
      "##kog": 6451,
      "ST": 6452,
      "pamet": 6453,
      "##ford": 6454,
      "vlade": 6455,
      "septem": 6456,
      "opravda": 6457,
      "velikih": 6458,
      "rezultati": 6459,
      "UN": 6460,
      "korona": 6461,
      "brojne": 6462,
      "nezavi": 6463,
      "utje": 6464,
      "##vrije": 6465,
      "stranicu": 6466,
      "##ра": 6467,
      "##ssi": 6468,
      "intenzi": 6469,
      "razreda": 6470,
      "izo": 6471,
      "ispa": 6472,
      "kupiti": 6473,
      "mala": 6474,
      "##ćemo": 6475,
      "SU": 6476,
      "temelj": 6477,
      "400": 6478,
      "evrop": 6479,
      "##lski": 6480,
      "životinja": 6481,
      "udo": 6482,
      "##vremenu": 6483,
      "počela": 6484,
      "stranicama": 6485,
      "izve": 6486,
      "kor": 6487,
      "bilj": 6488,
      "PRE": 6489,
      "vita": 6490,
      "politiku": 6491,
      "predstavnici": 6492,
      "događaja": 6493,
      "Hrvati": 6494,
      "Kla": 6495,
      "Jedna": 6496,
      "alkoho": 6497,
      "mjera": 6498,
      "##kih": 6499,
      "Srba": 6500,
      "napu": 6501,
      "##cno": 6502,
      "odmor": 6503,
      "htje": 6504,
      "##gno": 6505,
      "##lini": 6506,
      "kolovoza": 6507,
      "tjedan": 6508,
      "##raz": 6509,
      "pomaže": 6510,
      "car": 6511,
      "Prvo": 6512,
      "toku": 6513,
      "treni": 6514,
      "reli": 6515,
      "##spek": 6516,
      "##rska": 6517,
      "ciljem": 6518,
      "##mp": 6519,
      "hilja": 6520,
      "Marko": 6521,
      "ino": 6522,
      "Google": 6523,
      "##tivnim": 6524,
      "smi": 6525,
      "sliku": 6526,
      "##dnica": 6527,
      "onoga": 6528,
      "glaz": 6529,
      "sl": 6530,
      "##mat": 6531,
      "##čenju": 6532,
      "##netu": 6533,
      "naju": 6534,
      "briga": 6535,
      "istraživa": 6536,
      "atmosfe": 6537,
      "ponedjeljak": 6538,
      "portala": 6539,
      "##zanje": 6540,
      "##ret": 6541,
      "veljače": 6542,
      "Tro": 6543,
      "osnovne": 6544,
      "##jana": 6545,
      "##dran": 6546,
      "njegovog": 6547,
      "191": 6548,
      "##toj": 6549,
      "Komenta": 6550,
      "modela": 6551,
      "institucija": 6552,
      "zahtjev": 6553,
      "istom": 6554,
      "##voljan": 6555,
      "mir": 6556,
      "prosvje": 6557,
      "kršća": 6558,
      "##ZI": 6559,
      "programu": 6560,
      "foru": 6561,
      "Hrvata": 6562,
      "konačno": 6563,
      "naziv": 6564,
      "150": 6565,
      "bas": 6566,
      "lista": 6567,
      "uspješno": 6568,
      "efika": 6569,
      "svrhu": 6570,
      "##štena": 6571,
      "dobija": 6572,
      "##spi": 6573,
      "igrati": 6574,
      "Vukova": 6575,
      "Fu": 6576,
      "##nov": 6577,
      "bavi": 6578,
      "##žavanja": 6579,
      "akcije": 6580,
      "Ope": 6581,
      "Istra": 6582,
      "##dilo": 6583,
      "progla": 6584,
      "nikak": 6585,
      "##volu": 6586,
      "##ravak": 6587,
      "##36": 6588,
      "nagrada": 6589,
      "poduzetni": 6590,
      "stepe": 6591,
      "##tara": 6592,
      "##čem": 6593,
      "##mani": 6594,
      "najboljih": 6595,
      "##toč": 6596,
      "maksima": 6597,
      "##iska": 6598,
      "Auto": 6599,
      "##prijed": 6600,
      "znak": 6601,
      "svoja": 6602,
      "javnost": 6603,
      "##šića": 6604,
      "##Bi": 6605,
      "48": 6606,
      "Politi": 6607,
      "općine": 6608,
      "siroma": 6609,
      "konkuren": 6610,
      "valja": 6611,
      "Nisam": 6612,
      "održan": 6613,
      "nedjelju": 6614,
      "prigo": 6615,
      "tehnologije": 6616,
      "dosada": 6617,
      "##tira": 6618,
      "kompo": 6619,
      "želimo": 6620,
      "Brita": 6621,
      "##gori": 6622,
      "kine": 6623,
      "dnevno": 6624,
      "otac": 6625,
      "uklo": 6626,
      "##land": 6627,
      "preži": 6628,
      "##vju": 6629,
      "Moj": 6630,
      "Tak": 6631,
      "primije": 6632,
      "praz": 6633,
      "strada": 6634,
      "napusti": 6635,
      "##novića": 6636,
      "održava": 6637,
      "Službe": 6638,
      "##strije": 6639,
      "##lip": 6640,
      "staja": 6641,
      "2002": 6642,
      "privatnosti": 6643,
      "##mente": 6644,
      "##zacija": 6645,
      "karakteristi": 6646,
      "olak": 6647,
      "princi": 6648,
      "naci": 6649,
      "komentara": 6650,
      "##sira": 6651,
      "dom": 6652,
      "ustanova": 6653,
      "##rovatno": 6654,
      "očito": 6655,
      "##vena": 6656,
      "usa": 6657,
      "Opći": 6658,
      "ter": 6659,
      "Meksi": 6660,
      "##čnici": 6661,
      "Ap": 6662,
      "Press": 6663,
      "##jsko": 6664,
      "koali": 6665,
      "povu": 6666,
      "razmje": 6667,
      "različitim": 6668,
      "##isije": 6669,
      "njihovo": 6670,
      "moram": 6671,
      "politika": 6672,
      "2003": 6673,
      "Čla": 6674,
      "sindi": 6675,
      "odvija": 6676,
      "##zio": 6677,
      "udruga": 6678,
      "Bran": 6679,
      "pozor": 6680,
      "konzu": 6681,
      "minima": 6682,
      "##tama": 6683,
      "##vari": 6684,
      "##štava": 6685,
      "neiz": 6686,
      "filozo": 6687,
      "postala": 6688,
      "Lije": 6689,
      "provede": 6690,
      "autobu": 6691,
      "borbi": 6692,
      "mehani": 6693,
      "poka": 6694,
      "tržište": 6695,
      "##ph": 6696,
      "obavez": 6697,
      "Tomisla": 6698,
      "volim": 6699,
      "pusti": 6700,
      "##vnica": 6701,
      "slede": 6702,
      "##žuje": 6703,
      "bibli": 6704,
      "##loške": 6705,
      "scena": 6706,
      "##PO": 6707,
      "##tice": 6708,
      "velikom": 6709,
      "medijima": 6710,
      "prisustvo": 6711,
      "univer": 6712,
      "##dor": 6713,
      "ići": 6714,
      "##nomi": 6715,
      "##cijskog": 6716,
      "Svaki": 6717,
      "Sv": 6718,
      "apri": 6719,
      "samog": 6720,
      "vrti": 6721,
      "odgovornost": 6722,
      "Organi": 6723,
      "prijatelji": 6724,
      "Republici": 6725,
      "##nijeg": 6726,
      "##od": 6727,
      "državne": 6728,
      "prvu": 6729,
      "##rme": 6730,
      "razne": 6731,
      "##но": 6732,
      "##slima": 6733,
      "##mla": 6734,
      "tekstu": 6735,
      "##tal": 6736,
      "majka": 6737,
      "takva": 6738,
      "klima": 6739,
      "Dina": 6740,
      "Encyclopedia": 6741,
      "aktivi": 6742,
      "teku": 6743,
      "vod": 6744,
      "uređaja": 6745,
      "razo": 6746,
      "##kuje": 6747,
      "čija": 6748,
      "predsednik": 6749,
      "prolje": 6750,
      "opreme": 6751,
      "Tek": 6752,
      "Obra": 6753,
      "održi": 6754,
      "garan": 6755,
      "Vis": 6756,
      "##BiH": 6757,
      "Michael": 6758,
      "predmeta": 6759,
      "Neki": 6760,
      "##šnog": 6761,
      "kupu": 6762,
      "milijardi": 6763,
      "treći": 6764,
      "vrhu": 6765,
      "##yer": 6766,
      "evra": 6767,
      "osobnih": 6768,
      "##kati": 6769,
      "##vidu": 6770,
      "Igra": 6771,
      "kandidata": 6772,
      "povre": 6773,
      "oduše": 6774,
      "sho": 6775,
      "41": 6776,
      "##mene": 6777,
      "treće": 6778,
      "slično": 6779,
      "##cal": 6780,
      "kise": 6781,
      "situacije": 6782,
      "multi": 6783,
      "top": 6784,
      "uključi": 6785,
      "Wor": 6786,
      "omi": 6787,
      "izborima": 6788,
      "fakultet": 6789,
      "##dex": 6790,
      "##SKI": 6791,
      "##timi": 6792,
      "##bičaje": 6793,
      "okuplja": 6794,
      "teksto": 6795,
      "kakve": 6796,
      "Beograda": 6797,
      "##zama": 6798,
      "znate": 6799,
      "##ting": 6800,
      "privre": 6801,
      "duži": 6802,
      "prijatelja": 6803,
      "##žavaju": 6804,
      "apsolu": 6805,
      "negdje": 6806,
      "jučer": 6807,
      "isklju": 6808,
      "sljedeće": 6809,
      "ogrom": 6810,
      "Hajdu": 6811,
      "sobom": 6812,
      "Zakon": 6813,
      "##šteni": 6814,
      "##nes": 6815,
      "##је": 6816,
      "obezbe": 6817,
      "osjećaj": 6818,
      "raspolo": 6819,
      "Predsjednik": 6820,
      "glas": 6821,
      "opći": 6822,
      "##ških": 6823,
      "Gre": 6824,
      "poh": 6825,
      "javnih": 6826,
      "potroša": 6827,
      "stanovništva": 6828,
      "abo": 6829,
      "ulja": 6830,
      "##priča": 6831,
      "##ncu": 6832,
      "Varaž": 6833,
      "specifi": 6834,
      "pože": 6835,
      "nastave": 6836,
      "##mski": 6837,
      "Miha": 6838,
      "jugo": 6839,
      "51": 6840,
      "istraživanje": 6841,
      "svoga": 6842,
      "seksu": 6843,
      "##kov": 6844,
      "samoupra": 6845,
      "teni": 6846,
      "##ziti": 6847,
      "Per": 6848,
      "parlamenta": 6849,
      "kojemu": 6850,
      "##lske": 6851,
      "history": 6852,
      "##fer": 6853,
      "prijedlog": 6854,
      "##sur": 6855,
      "prošlo": 6856,
      "osobama": 6857,
      "bje": 6858,
      "##šo": 6859,
      "utakmicu": 6860,
      "##lacija": 6861,
      "nemam": 6862,
      "##vate": 6863,
      "Pošto": 6864,
      "unapre": 6865,
      "##slov": 6866,
      "nivou": 6867,
      "##torija": 6868,
      "amba": 6869,
      "Banja": 6870,
      "menad": 6871,
      "njihovu": 6872,
      "tržišta": 6873,
      "njegovom": 6874,
      "mikro": 6875,
      "##nosa": 6876,
      "##tona": 6877,
      "##štenje": 6878,
      "omogućava": 6879,
      "Pozi": 6880,
      "susret": 6881,
      "pozdra": 6882,
      "##nskoj": 6883,
      "proiz": 6884,
      "##kovića": 6885,
      "##SKO": 6886,
      "##ljivosti": 6887,
      "##šnjoj": 6888,
      "doživlja": 6889,
      "trener": 6890,
      "eto": 6891,
      "##deo": 6892,
      "Srbiju": 6893,
      "vatroga": 6894,
      "El": 6895,
      "ME": 6896,
      "postupa": 6897,
      "srpske": 6898,
      "tvrtka": 6899,
      "klik": 6900,
      "ćeš": 6901,
      "projektu": 6902,
      "Pogledajte": 6903,
      "takvih": 6904,
      "donije": 6905,
      "##jma": 6906,
      "obve": 6907,
      "nepre": 6908,
      "##proda": 6909,
      "Centar": 6910,
      "##ženju": 6911,
      "hrvatskom": 6912,
      "povijest": 6913,
      "nagradu": 6914,
      "putovanja": 6915,
      "##lizaciju": 6916,
      "iznos": 6917,
      "##kola": 6918,
      "Amerika": 6919,
      "##vile": 6920,
      "##terna": 6921,
      "zahtjeva": 6922,
      "vele": 6923,
      "isporu": 6924,
      "humani": 6925,
      "premijer": 6926,
      "nastaviti": 6927,
      "##bran": 6928,
      "ostao": 6929,
      "39": 6930,
      "Vijesti": 6931,
      "##čaka": 6932,
      "mrt": 6933,
      "nastavak": 6934,
      "Univerzi": 6935,
      "##ranu": 6936,
      "##mišlje": 6937,
      "uma": 6938,
      "studenata": 6939,
      "##ćuju": 6940,
      "##vlači": 6941,
      "LI": 6942,
      "poruke": 6943,
      "nare": 6944,
      "stavka": 6945,
      "kvalitete": 6946,
      "Sun": 6947,
      "ug": 6948,
      "Wiki": 6949,
      "istovremeno": 6950,
      "drago": 6951,
      "##šnih": 6952,
      "##žo": 6953,
      "Facebook": 6954,
      "krajem": 6955,
      "zabilje": 6956,
      "##ati": 6957,
      "čast": 6958,
      "Fil": 6959,
      "prezenta": 6960,
      "Evrop": 6961,
      "##nuta": 6962,
      "##tnica": 6963,
      "55": 6964,
      "tur": 6965,
      "djeluje": 6966,
      "okolnosti": 6967,
      "posloda": 6968,
      "posljednjih": 6969,
      "smatraju": 6970,
      "##rnim": 6971,
      "raznih": 6972,
      "##rajte": 6973,
      "prekra": 6974,
      "terenu": 6975,
      "PA": 6976,
      "preh": 6977,
      "Kru": 6978,
      "sela": 6979,
      "knjiž": 6980,
      "nogomet": 6981,
      "topli": 6982,
      "##kovima": 6983,
      "##zdu": 6984,
      "ubi": 6985,
      "##limpi": 6986,
      "Možete": 6987,
      "pjesme": 6988,
      "Ox": 6989,
      "##rp": 6990,
      "##tove": 6991,
      "##kladno": 6992,
      "pojača": 6993,
      "dogo": 6994,
      "bodova": 6995,
      "nai": 6996,
      "pojedina": 6997,
      "jednim": 6998,
      "193": 6999,
      "pokreta": 7000,
      "Mađa": 7001,
      "real": 7002,
      "pobjedni": 7003,
      "Napo": 7004,
      "procesa": 7005,
      "košta": 7006,
      "nisi": 7007,
      "dono": 7008,
      "stan": 7009,
      "ulici": 7010,
      "lige": 7011,
      "Veliki": 7012,
      "drži": 7013,
      "ministra": 7014,
      "prese": 7015,
      "poznati": 7016,
      "protek": 7017,
      "##lizam": 7018,
      "oseća": 7019,
      "točno": 7020,
      "evi": 7021,
      "prekr": 7022,
      "##spje": 7023,
      "##vera": 7024,
      "##KI": 7025,
      "odabi": 7026,
      "Nor": 7027,
      "mana": 7028,
      "radom": 7029,
      "Gori": 7030,
      "Europi": 7031,
      "student": 7032,
      "jesu": 7033,
      "širom": 7034,
      "Sin": 7035,
      "##viru": 7036,
      "##šteno": 7037,
      "suvreme": 7038,
      "znanje": 7039,
      "bezbe": 7040,
      "tehnologija": 7041,
      "srijedu": 7042,
      "proizvodnju": 7043,
      "##šati": 7044,
      "even": 7045,
      "Prva": 7046,
      "rok": 7047,
      "izvora": 7048,
      "##caj": 7049,
      "Sred": 7050,
      "blizu": 7051,
      "##mac": 7052,
      "Uče": 7053,
      "mjeri": 7054,
      "želja": 7055,
      "##ol": 7056,
      "Par": 7057,
      "##sona": 7058,
      "besplatno": 7059,
      "##čnika": 7060,
      "konsta": 7061,
      "##ordina": 7062,
      "sigurnost": 7063,
      "##cionira": 7064,
      "arhite": 7065,
      "##ts": 7066,
      "hvala": 7067,
      "Mer": 7068,
      "pregled": 7069,
      "poljoprivred": 7070,
      "ostala": 7071,
      "##jsku": 7072,
      "##pova": 7073,
      "cjelo": 7074,
      "korisnicima": 7075,
      "##vljuju": 7076,
      "Londo": 7077,
      "43": 7078,
      "Ser": 7079,
      "Bla": 7080,
      "Splitu": 7081,
      "djeci": 7082,
      "podrazu": 7083,
      "Kosova": 7084,
      "registri": 7085,
      "fakultetu": 7086,
      "##moć": 7087,
      "Medi": 7088,
      "##slovno": 7089,
      "situaciju": 7090,
      "stare": 7091,
      "naročito": 7092,
      "radnog": 7093,
      "##boru": 7094,
      "Mnog": 7095,
      "Bije": 7096,
      "fri": 7097,
      "##piju": 7098,
      "##ER": 7099,
      "drugačije": 7100,
      "##nete": 7101,
      "nekako": 7102,
      "raste": 7103,
      "napad": 7104,
      "glavu": 7105,
      "about": 7106,
      "##nina": 7107,
      "turizma": 7108,
      "nezna": 7109,
      "##dnje": 7110,
      "IN": 7111,
      "granice": 7112,
      "kuć": 7113,
      "idea": 7114,
      "završio": 7115,
      "oblik": 7116,
      "##ana": 7117,
      "prvaka": 7118,
      "##jevi": 7119,
      "Posle": 7120,
      "##ue": 7121,
      "listi": 7122,
      "inozem": 7123,
      "saču": 7124,
      "ideje": 7125,
      "Zi": 7126,
      "održavanje": 7127,
      "##sk": 7128,
      "##ćene": 7129,
      "raspore": 7130,
      "Festi": 7131,
      "Cilj": 7132,
      "Inače": 7133,
      "##cro": 7134,
      "komuna": 7135,
      "intervju": 7136,
      "termi": 7137,
      "tvoj": 7138,
      "rezultata": 7139,
      "##dovima": 7140,
      "konstru": 7141,
      "##lizacija": 7142,
      "odlučio": 7143,
      "obavijesti": 7144,
      "stupa": 7145,
      "Vaš": 7146,
      "decem": 7147,
      "studenti": 7148,
      "naf": 7149,
      "##igra": 7150,
      "njegovih": 7151,
      "osvojio": 7152,
      "reali": 7153,
      "Drugo": 7154,
      "##timo": 7155,
      "novem": 7156,
      "boji": 7157,
      "građanima": 7158,
      "procedu": 7159,
      "promjena": 7160,
      "##site": 7161,
      "Srebre": 7162,
      "cilju": 7163,
      "Zadar": 7164,
      "objašnja": 7165,
      "prio": 7166,
      "istakao": 7167,
      "bana": 7168,
      "Vojvodi": 7169,
      "uza": 7170,
      "pomi": 7171,
      "##blji": 7172,
      "financi": 7173,
      "##vske": 7174,
      "pravosla": 7175,
      "znatno": 7176,
      "Rusije": 7177,
      "Zahva": 7178,
      "bilje": 7179,
      "##KU": 7180,
      "##šak": 7181,
      "##ker": 7182,
      "##dica": 7183,
      "procesu": 7184,
      "##znu": 7185,
      "##wer": 7186,
      "Budu": 7187,
      "kora": 7188,
      "##laganje": 7189,
      "mlado": 7190,
      "članica": 7191,
      "ponavlja": 7192,
      "poni": 7193,
      "Kro": 7194,
      "Veliko": 7195,
      "knjigu": 7196,
      "bom": 7197,
      "1991": 7198,
      "Ide": 7199,
      "kaj": 7200,
      "tipa": 7201,
      "##nogra": 7202,
      "nece": 7203,
      "##čića": 7204,
      "Program": 7205,
      "tebi": 7206,
      "##vero": 7207,
      "##fiju": 7208,
      "upravljanje": 7209,
      "uvjete": 7210,
      "razdoblju": 7211,
      "janu": 7212,
      "osvaja": 7213,
      "##mr": 7214,
      "formu": 7215,
      "navodno": 7216,
      "Oxford": 7217,
      "##šević": 7218,
      "Aleksandar": 7219,
      "##guje": 7220,
      "kulturu": 7221,
      "grafi": 7222,
      "agencija": 7223,
      "sveučili": 7224,
      "poslovanja": 7225,
      "svakodnevno": 7226,
      "integra": 7227,
      "nista": 7228,
      "fudba": 7229,
      "##rje": 7230,
      "stambe": 7231,
      "pam": 7232,
      "Makedo": 7233,
      "državlja": 7234,
      "Narodne": 7235,
      "valjda": 7236,
      "Njego": 7237,
      "rekli": 7238,
      "Bru": 7239,
      "1996": 7240,
      "44": 7241,
      "površine": 7242,
      "ulazi": 7243,
      "znao": 7244,
      "uključuje": 7245,
      "odobre": 7246,
      "Tada": 7247,
      "recimo": 7248,
      "rasta": 7249,
      "tret": 7250,
      "isla": 7251,
      "rođe": 7252,
      "Miro": 7253,
      "##bine": 7254,
      "Velika": 7255,
      "ponuda": 7256,
      "Sveti": 7257,
      "dogodilo": 7258,
      "##pović": 7259,
      "skupa": 7260,
      "preva": 7261,
      "##MS": 7262,
      "reč": 7263,
      "Rijeka": 7264,
      "učinkovi": 7265,
      "skupine": 7266,
      "ostavlja": 7267,
      "duže": 7268,
      "napravio": 7269,
      "##lišta": 7270,
      "vrijedi": 7271,
      "Ured": 7272,
      "##cijska": 7273,
      "kolu": 7274,
      "Prepo": 7275,
      "prihvaća": 7276,
      "kuću": 7277,
      "##OS": 7278,
      "##tter": 7279,
      "##njene": 7280,
      "prvoj": 7281,
      "osobno": 7282,
      "britan": 7283,
      "42": 7284,
      "##91": 7285,
      "jeze": 7286,
      "same": 7287,
      "zausta": 7288,
      "preven": 7289,
      "##sobno": 7290,
      "##nilo": 7291,
      "postupku": 7292,
      "desi": 7293,
      "TE": 7294,
      "nepro": 7295,
      "SI": 7296,
      "naselje": 7297,
      "ponudu": 7298,
      "zamis": 7299,
      "dokaz": 7300,
      "##bić": 7301,
      "njen": 7302,
      "##pula": 7303,
      "##ženih": 7304,
      "distri": 7305,
      "ugra": 7306,
      "onako": 7307,
      "Universi": 7308,
      "Iza": 7309,
      "ponudi": 7310,
      "srednje": 7311,
      "Novom": 7312,
      "Najve": 7313,
      "##tore": 7314,
      "institucije": 7315,
      "Milan": 7316,
      "cooki": 7317,
      "ama": 7318,
      "podne": 7319,
      "cijenu": 7320,
      "uspjeh": 7321,
      "##nui": 7322,
      "vašem": 7323,
      "iznosu": 7324,
      "##TU": 7325,
      "##kos": 7326,
      "Dom": 7327,
      "bogat": 7328,
      "##ljko": 7329,
      "vred": 7330,
      "pogla": 7331,
      "simpto": 7332,
      "sastoji": 7333,
      "omogućiti": 7334,
      "devet": 7335,
      "redovi": 7336,
      "Nada": 7337,
      "##vijest": 7338,
      "Ante": 7339,
      "kontek": 7340,
      "##ul": 7341,
      "registra": 7342,
      "stranu": 7343,
      "radno": 7344,
      "##88": 7345,
      "ospo": 7346,
      "referen": 7347,
      "Jako": 7348,
      "grije": 7349,
      "časova": 7350,
      "razgovor": 7351,
      "korištenjem": 7352,
      "##vaj": 7353,
      "##fina": 7354,
      "Sam": 7355,
      "##ČI": 7356,
      "##jedna": 7357,
      "trgova": 7358,
      "festival": 7359,
      "##pti": 7360,
      "ispunja": 7361,
      "##tuje": 7362,
      "uju": 7363,
      "##mice": 7364,
      "##šena": 7365,
      "Bje": 7366,
      "onog": 7367,
      "Takođe": 7368,
      "##par": 7369,
      "Win": 7370,
      "kilometara": 7371,
      "poznato": 7372,
      "objekata": 7373,
      "poruka": 7374,
      "teritori": 7375,
      "istu": 7376,
      "predmet": 7377,
      "komplek": 7378,
      "##brati": 7379,
      "period": 7380,
      "##rže": 7381,
      "osobito": 7382,
      "Iva": 7383,
      "mexico": 7384,
      "eksplo": 7385,
      "hrvatska": 7386,
      "određene": 7387,
      "##rnom": 7388,
      "##vnici": 7389,
      "nikakve": 7390,
      "nara": 7391,
      "plat": 7392,
      "prou": 7393,
      "kakva": 7394,
      "potreba": 7395,
      "Klu": 7396,
      "wi": 7397,
      "duga": 7398,
      "##ljivost": 7399,
      "krite": 7400,
      "fra": 7401,
      "##lture": 7402,
      "##podne": 7403,
      "pokazao": 7404,
      "##BO": 7405,
      "Čak": 7406,
      "Yor": 7407,
      "vidio": 7408,
      "##ре": 7409,
      "akcija": 7410,
      "poreme": 7411,
      "##tacije": 7412,
      "tor": 7413,
      "koncert": 7414,
      "političkih": 7415,
      "nepozna": 7416,
      "kategoriji": 7417,
      "##pisuje": 7418,
      "skr": 7419,
      "upi": 7420,
      "##čani": 7421,
      "##ley": 7422,
      "##at": 7423,
      "normalno": 7424,
      "##kru": 7425,
      "##ser": 7426,
      "polju": 7427,
      "75": 7428,
      "Maj": 7429,
      "##krati": 7430,
      "izre": 7431,
      "odvje": 7432,
      "##žavanje": 7433,
      "šuma": 7434,
      "tuma": 7435,
      "##et": 7436,
      "ekipe": 7437,
      "prilično": 7438,
      "##000": 7439,
      "Meto": 7440,
      "misle": 7441,
      "doprinos": 7442,
      "##jić": 7443,
      "prolazi": 7444,
      "izvu": 7445,
      "RT": 7446,
      "bru": 7447,
      "nazo": 7448,
      "cijele": 7449,
      "##govarati": 7450,
      "sara": 7451,
      "magi": 7452,
      "poštu": 7453,
      "smr": 7454,
      "##roja": 7455,
      "korup": 7456,
      "ispiti": 7457,
      "Riječ": 7458,
      "save": 7459,
      "vjerujem": 7460,
      "##danje": 7461,
      "Bogu": 7462,
      "obzir": 7463,
      "domaćin": 7464,
      "##mite": 7465,
      "##snoj": 7466,
      "opisa": 7467,
      "najvi": 7468,
      "naziva": 7469,
      "direktno": 7470,
      "##tati": 7471,
      "##cs": 7472,
      "dre": 7473,
      "##voru": 7474,
      "prezi": 7475,
      "profesor": 7476,
      "nezaposle": 7477,
      "##ebru": 7478,
      "##dice": 7479,
      "Anto": 7480,
      "delo": 7481,
      "Vučić": 7482,
      "načinu": 7483,
      "Poslo": 7484,
      "lepo": 7485,
      "##vaca": 7486,
      "izbore": 7487,
      "Neka": 7488,
      "priop": 7489,
      "##isti": 7490,
      "ulje": 7491,
      "##kciju": 7492,
      "##tska": 7493,
      "##gara": 7494,
      "morati": 7495,
      "Ljudi": 7496,
      "pala": 7497,
      "mestu": 7498,
      "Pravo": 7499,
      "Tijekom": 7500,
      "radnih": 7501,
      "naglasio": 7502,
      "Bre": 7503,
      "sposobnosti": 7504,
      "spremni": 7505,
      "120": 7506,
      "blag": 7507,
      "glaso": 7508,
      "razvije": 7509,
      "##sad": 7510,
      "radovi": 7511,
      "##strija": 7512,
      "dvori": 7513,
      "migra": 7514,
      "prera": 7515,
      "boli": 7516,
      "Rusija": 7517,
      "Kine": 7518,
      "Komentari": 7519,
      "##OVA": 7520,
      "jel": 7521,
      "uzbu": 7522,
      "pokazuju": 7523,
      "kožu": 7524,
      "##tes": 7525,
      "Engle": 7526,
      "vidimo": 7527,
      "dete": 7528,
      "##šite": 7529,
      "pridržana": 7530,
      "Dodi": 7531,
      "##mak": 7532,
      "predstavljaju": 7533,
      "##lci": 7534,
      "regula": 7535,
      "ugosti": 7536,
      "##nulo": 7537,
      "proizvođača": 7538,
      "vlasnik": 7539,
      "potrebne": 7540,
      "##leta": 7541,
      "dvoje": 7542,
      "porodice": 7543,
      "foku": 7544,
      "djeteta": 7545,
      "Đu": 7546,
      "Nu": 7547,
      "nastavku": 7548,
      "predu": 7549,
      "##bice": 7550,
      "hotela": 7551,
      "##nem": 7552,
      "Ure": 7553,
      "služi": 7554,
      "protu": 7555,
      "maso": 7556,
      "temelji": 7557,
      "Hri": 7558,
      "kažem": 7559,
      "Svaka": 7560,
      "individu": 7561,
      "Alba": 7562,
      "trudno": 7563,
      "##linu": 7564,
      "##mentima": 7565,
      "##stara": 7566,
      "BE": 7567,
      "Stude": 7568,
      "Kor": 7569,
      "##manu": 7570,
      "obje": 7571,
      "obaveza": 7572,
      "Bor": 7573,
      "Mostar": 7574,
      "##tskog": 7575,
      "Odluka": 7576,
      "njihovi": 7577,
      "opro": 7578,
      "glupo": 7579,
      "Ovdje": 7580,
      "##tao": 7581,
      "Jugoslavije": 7582,
      "##dinu": 7583,
      "CI": 7584,
      "Međunarod": 7585,
      "serija": 7586,
      "plasti": 7587,
      "uskla": 7588,
      "##rira": 7589,
      "proto": 7590,
      "sino": 7591,
      "kape": 7592,
      "domovi": 7593,
      "pije": 7594,
      "Direk": 7595,
      "##štima": 7596,
      "University": 7597,
      "##pendi": 7598,
      "poznat": 7599,
      "##VD": 7600,
      "##godišnje": 7601,
      "imeno": 7602,
      "žup": 7603,
      "Domovi": 7604,
      "planu": 7605,
      "##trije": 7606,
      "pedago": 7607,
      "atra": 7608,
      "posa": 7609,
      "Meni": 7610,
      "teksta": 7611,
      "tima": 7612,
      "##han": 7613,
      "pravosu": 7614,
      "##ZA": 7615,
      "hu": 7616,
      "učestvo": 7617,
      "poruku": 7618,
      "dimen": 7619,
      "publika": 7620,
      "sastanak": 7621,
      "##turu": 7622,
      "Foto": 7623,
      "Eko": 7624,
      "državu": 7625,
      "podje": 7626,
      "situaciji": 7627,
      "JA": 7628,
      "Šu": 7629,
      "##čnik": 7630,
      "izložbe": 7631,
      "igrač": 7632,
      "kontakti": 7633,
      "##tnice": 7634,
      "##ina": 7635,
      "motor": 7636,
      "soft": 7637,
      "Dalma": 7638,
      "Narod": 7639,
      "##jnu": 7640,
      "slučajeva": 7641,
      "##čuju": 7642,
      "##valu": 7643,
      "Obi": 7644,
      "Spe": 7645,
      "drza": 7646,
      "tjele": 7647,
      "dug": 7648,
      "istaknuo": 7649,
      "##bis": 7650,
      "srpskog": 7651,
      "igri": 7652,
      "Stan": 7653,
      "okoliša": 7654,
      "sloven": 7655,
      "predstavnika": 7656,
      "Internet": 7657,
      "donese": 7658,
      "agencije": 7659,
      "nastavi": 7660,
      "av": 7661,
      "telefona": 7662,
      "sobe": 7663,
      "natjecanja": 7664,
      "uru": 7665,
      "##laganju": 7666,
      "osiguranja": 7667,
      "Ukraji": 7668,
      "izlazi": 7669,
      "##bne": 7670,
      "otpada": 7671,
      "iko": 7672,
      "##torima": 7673,
      "gri": 7674,
      "staviti": 7675,
      "svrhe": 7676,
      "stranka": 7677,
      "jedinica": 7678,
      "pokazala": 7679,
      "dizajn": 7680,
      "javni": 7681,
      "##leti": 7682,
      "partnera": 7683,
      "građane": 7684,
      "Vrije": 7685,
      "poza": 7686,
      "mišljenja": 7687,
      "hranu": 7688,
      "kće": 7689,
      "##rovi": 7690,
      "##zuju": 7691,
      "##cie": 7692,
      "uobičaje": 7693,
      "##čavanje": 7694,
      "##telju": 7695,
      "radionice": 7696,
      "Potre": 7697,
      "46": 7698,
      "##redi": 7699,
      "##pisima": 7700,
      "postupka": 7701,
      "##hn": 7702,
      "##vajte": 7703,
      "##žnih": 7704,
      "##tur": 7705,
      "primer": 7706,
      "##rove": 7707,
      "##rov": 7708,
      "##hija": 7709,
      "reči": 7710,
      "morao": 7711,
      "status": 7712,
      "telefo": 7713,
      "Broj": 7714,
      "siguran": 7715,
      "ostavi": 7716,
      "drugači": 7717,
      "istori": 7718,
      "pogledu": 7719,
      "visini": 7720,
      "gimna": 7721,
      "društvenim": 7722,
      "liko": 7723,
      "##dnicima": 7724,
      "##novije": 7725,
      "objavlji": 7726,
      "##teo": 7727,
      "##škim": 7728,
      "upotreblja": 7729,
      "##vodu": 7730,
      "žrtve": 7731,
      "Lje": 7732,
      "govorio": 7733,
      "##ila": 7734,
      "prikaz": 7735,
      "izgradnju": 7736,
      "otvorena": 7737,
      "##port": 7738,
      "Šibe": 7739,
      "geo": 7740,
      "vrši": 7741,
      "##matski": 7742,
      "zao": 7743,
      "Pav": 7744,
      "##oni": 7745,
      "prate": 7746,
      "nebi": 7747,
      "čelu": 7748,
      "FI": 7749,
      "zamije": 7750,
      "jutro": 7751,
      "Ovi": 7752,
      "zabri": 7753,
      "97": 7754,
      "##lića": 7755,
      "##čaju": 7756,
      "##leva": 7757,
      "Pari": 7758,
      "semina": 7759,
      "fanta": 7760,
      "službi": 7761,
      "Ch": 7762,
      "##tivu": 7763,
      "odlazi": 7764,
      "65": 7765,
      "##loških": 7766,
      "izved": 7767,
      "duše": 7768,
      "promijeniti": 7769,
      "funkcioni": 7770,
      "mnogim": 7771,
      "razlika": 7772,
      "stopa": 7773,
      "dodi": 7774,
      "kontakt": 7775,
      "njegovi": 7776,
      "eg": 7777,
      "Crkve": 7778,
      "mm": 7779,
      "##žim": 7780,
      "Zoran": 7781,
      "##stupan": 7782,
      "##turi": 7783,
      "dona": 7784,
      "uspio": 7785,
      "Nji": 7786,
      "primi": 7787,
      "epide": 7788,
      "festivala": 7789,
      "##kala": 7790,
      "gradonačelnik": 7791,
      "nasilja": 7792,
      "društvene": 7793,
      "postane": 7794,
      "nadam": 7795,
      "FO": 7796,
      "ciklu": 7797,
      "##konstru": 7798,
      "Ex": 7799,
      "zločina": 7800,
      "dose": 7801,
      "##ktiv": 7802,
      "##mail": 7803,
      "tvrde": 7804,
      "##dža": 7805,
      "pogledati": 7806,
      "prijateljima": 7807,
      "febru": 7808,
      "povećanje": 7809,
      "##GRA": 7810,
      "rukama": 7811,
      "##pati": 7812,
      "medije": 7813,
      "filmu": 7814,
      "bolest": 7815,
      "logo": 7816,
      "Rijeci": 7817,
      "šire": 7818,
      "Ustav": 7819,
      "izradu": 7820,
      "##BC": 7821,
      "kontrolu": 7822,
      "##vici": 7823,
      "##ntan": 7824,
      "odlično": 7825,
      "47": 7826,
      "jedina": 7827,
      "naveo": 7828,
      "glave": 7829,
      "domo": 7830,
      "##žnim": 7831,
      "##nstvo": 7832,
      "Naša": 7833,
      "natječaj": 7834,
      "godišnja": 7835,
      "osnovnih": 7836,
      "zadržana": 7837,
      "Nove": 7838,
      "##ljuje": 7839,
      "Man": 7840,
      "podsje": 7841,
      "preosta": 7842,
      "##sse": 7843,
      "sina": 7844,
      "table": 7845,
      "DI": 7846,
      "selek": 7847,
      "susreta": 7848,
      "utakmici": 7849,
      "ika": 7850,
      "##rci": 7851,
      "gledati": 7852,
      "Umje": 7853,
      "slobode": 7854,
      "kombi": 7855,
      "##ljan": 7856,
      "##dja": 7857,
      "##šavaju": 7858,
      "HN": 7859,
      "##vniku": 7860,
      "navode": 7861,
      "osiguranje": 7862,
      "##kula": 7863,
      "##vin": 7864,
      "ostalog": 7865,
      "posebnim": 7866,
      "makar": 7867,
      "##šenju": 7868,
      "vježba": 7869,
      "49": 7870,
      "Har": 7871,
      "prošlosti": 7872,
      "ute": 7873,
      "##ye": 7874,
      "vojske": 7875,
      "Autor": 7876,
      "##22": 7877,
      "došla": 7878,
      "nekad": 7879,
      "uređaj": 7880,
      "listu": 7881,
      "počeli": 7882,
      "cijelu": 7883,
      "nažalost": 7884,
      "##bert": 7885,
      "masa": 7886,
      "dodije": 7887,
      "avi": 7888,
      "##čun": 7889,
      "##jskoj": 7890,
      "##jeve": 7891,
      "mati": 7892,
      "zaposlenih": 7893,
      "varija": 7894,
      "pol": 7895,
      "plaće": 7896,
      "##sjeda": 7897,
      "automobil": 7898,
      "najavio": 7899,
      "nužno": 7900,
      "plaćanja": 7901,
      "##šćenja": 7902,
      "Muze": 7903,
      "prijavu": 7904,
      "Božić": 7905,
      "oblika": 7906,
      "Kosovo": 7907,
      "pjeva": 7908,
      "vašeg": 7909,
      "Alla": 7910,
      "dobru": 7911,
      "apo": 7912,
      "##ledge": 7913,
      "onim": 7914,
      "održavanja": 7915,
      "razred": 7916,
      "slijede": 7917,
      "revolu": 7918,
      "znali": 7919,
      "Kata": 7920,
      "Boži": 7921,
      "##lli": 7922,
      "elektroni": 7923,
      "ljeto": 7924,
      "naselja": 7925,
      "##pustiti": 7926,
      "##vnice": 7927,
      "preduzeća": 7928,
      "zasta": 7929,
      "odgovornosti": 7930,
      "trenutak": 7931,
      "poto": 7932,
      "tvoje": 7933,
      "izdanje": 7934,
      "Med": 7935,
      "intelek": 7936,
      "premi": 7937,
      "kg": 7938,
      "##hni": 7939,
      "##lijan": 7940,
      "1997": 7941,
      "vijest": 7942,
      "alterna": 7943,
      "poručio": 7944,
      "današnji": 7945,
      "korist": 7946,
      "##čnije": 7947,
      "cvije": 7948,
      "##gr": 7949,
      "jefti": 7950,
      "nogometa": 7951,
      "imu": 7952,
      "##vjek": 7953,
      "sredine": 7954,
      "istog": 7955,
      "dodaje": 7956,
      "komo": 7957,
      "##hat": 7958,
      "99": 7959,
      "informacijama": 7960,
      "zraka": 7961,
      "##žnog": 7962,
      "spada": 7963,
      "##cipli": 7964,
      "##graf": 7965,
      "pravom": 7966,
      "infe": 7967,
      "govoriti": 7968,
      "gosto": 7969,
      "odbor": 7970,
      "menta": 7971,
      "##tskih": 7972,
      "distribu": 7973,
      "##spekti": 7974,
      "##PS": 7975,
      "##vljenje": 7976,
      "smeta": 7977,
      "sugla": 7978,
      "konferenciji": 7979,
      "hotel": 7980,
      "izgled": 7981,
      "OŠ": 7982,
      "korisnici": 7983,
      "##bni": 7984,
      "predavanja": 7985,
      "##nati": 7986,
      "Josip": 7987,
      "kantona": 7988,
      "prvenstvo": 7989,
      "istim": 7990,
      "titu": 7991,
      "večer": 7992,
      "poslovne": 7993,
      "Filozo": 7994,
      "##minira": 7995,
      "ispi": 7996,
      "nogome": 7997,
      "kama": 7998,
      "potrebama": 7999,
      "zrako": 8000,
      "njihovom": 8001,
      "##nsi": 8002,
      "Isus": 8003,
      "generacije": 8004,
      "maja": 8005,
      "raznim": 8006,
      "kontinui": 8007,
      "##ва": 8008,
      "##manti": 8009,
      "najvećih": 8010,
      "Willi": 8011,
      "gale": 8012,
      "pokazati": 8013,
      "Er": 8014,
      "##DS": 8015,
      "ote": 8016,
      "aplikacije": 8017,
      "razume": 8018,
      "živjeti": 8019,
      "prednosti": 8020,
      "američki": 8021,
      "oca": 8022,
      "asiste": 8023,
      "Pore": 8024,
      "omogućuje": 8025,
      "obro": 8026,
      "##bs": 8027,
      "ostav": 8028,
      "Njemačkoj": 8029,
      "borbu": 8030,
      "m2": 8031,
      "Dne": 8032,
      "##ćeva": 8033,
      "apart": 8034,
      "vidjeli": 8035,
      "takvim": 8036,
      "##šle": 8037,
      "##raj": 8038,
      "Sko": 8039,
      "zapad": 8040,
      "uživo": 8041,
      "##ed": 8042,
      "starije": 8043,
      "serije": 8044,
      "##forme": 8045,
      "Sjedinje": 8046,
      "neposre": 8047,
      "skupina": 8048,
      "glasova": 8049,
      "soba": 8050,
      "bazi": 8051,
      "posljedica": 8052,
      "direktora": 8053,
      "urba": 8054,
      "veka": 8055,
      "eli": 8056,
      "ističu": 8057,
      "diljem": 8058,
      "usposta": 8059,
      "kvalifika": 8060,
      "album": 8061,
      "Sigu": 8062,
      "studije": 8063,
      "leta": 8064,
      "kosu": 8065,
      "vidu": 8066,
      "##neri": 8067,
      "KU": 8068,
      "##povi": 8069,
      "##ktor": 8070,
      "savjeto": 8071,
      "Parti": 8072,
      "prove": 8073,
      "juče": 8074,
      "Naš": 8075,
      "##zad": 8076,
      "postro": 8077,
      "ocije": 8078,
      "posljednje": 8079,
      "nek": 8080,
      "prvenstva": 8081,
      "dže": 8082,
      "##škoj": 8083,
      "1999": 8084,
      "filmova": 8085,
      "##ruju": 8086,
      "objašnje": 8087,
      "koristite": 8088,
      "njegovoj": 8089,
      "krize": 8090,
      "Upo": 8091,
      "baca": 8092,
      "kriv": 8093,
      "poena": 8094,
      "Rout": 8095,
      "##mm": 8096,
      "knjizi": 8097,
      "stana": 8098,
      "##bera": 8099,
      "prilike": 8100,
      "muslima": 8101,
      "prido": 8102,
      "Routledge": 8103,
      "zahvali": 8104,
      "Vijeća": 8105,
      "ideo": 8106,
      "##lično": 8107,
      "##dniku": 8108,
      "##zak": 8109,
      "imaš": 8110,
      "zanimlji": 8111,
      "tren": 8112,
      "##LJE": 8113,
      "neobi": 8114,
      "##pta": 8115,
      "doktor": 8116,
      "##đaju": 8117,
      "dalji": 8118,
      "##ncela": 8119,
      "radili": 8120,
      "##tnja": 8121,
      "##25": 8122,
      "sumnja": 8123,
      "obavje": 8124,
      "noge": 8125,
      "Mnogi": 8126,
      "prednost": 8127,
      "zvez": 8128,
      "Kralje": 8129,
      "neovi": 8130,
      "BO": 8131,
      "vru": 8132,
      "uspjeli": 8133,
      "##SKA": 8134,
      "ubija": 8135,
      "minuti": 8136,
      "spor": 8137,
      "PU": 8138,
      "Jadran": 8139,
      "##čini": 8140,
      "uklanja": 8141,
      "##sati": 8142,
      "VE": 8143,
      "tražiti": 8144,
      "projekte": 8145,
      "visoke": 8146,
      "koronaviru": 8147,
      "US": 8148,
      "njihovog": 8149,
      "malih": 8150,
      "moz": 8151,
      "Wikime": 8152,
      "zar": 8153,
      "Zapa": 8154,
      "Crkva": 8155,
      "##pove": 8156,
      "zajednički": 8157,
      "##PI": 8158,
      "sjednici": 8159,
      "autori": 8160,
      "interes": 8161,
      "##stica": 8162,
      "Che": 8163,
      "igrao": 8164,
      "##ranih": 8165,
      "pogledajte": 8166,
      "dostupan": 8167,
      "kontrole": 8168,
      "##ces": 8169,
      "slaže": 8170,
      "boljeg": 8171,
      "##на": 8172,
      "rečeno": 8173,
      "geogra": 8174,
      "##ls": 8175,
      "##jm": 8176,
      "iznimno": 8177,
      "špa": 8178,
      "Crna": 8179,
      "Mali": 8180,
      "socijalne": 8181,
      "reagi": 8182,
      "bibliote": 8183,
      "sveti": 8184,
      "granica": 8185,
      "mnogih": 8186,
      "##senje": 8187,
      "##zati": 8188,
      "##zaciju": 8189,
      "Mladi": 8190,
      "čisto": 8191,
      "zadatak": 8192,
      "Rezulta": 8193,
      "##šili": 8194,
      "ul": 8195,
      "##rami": 8196,
      "poseban": 8197,
      "##prkos": 8198,
      "TO": 8199,
      "zatvara": 8200,
      "stipendi": 8201,
      "##15": 8202,
      "obveza": 8203,
      "početi": 8204,
      "PDV": 8205,
      "državni": 8206,
      "napi": 8207,
      "Mir": 8208,
      "kupi": 8209,
      "oprem": 8210,
      "životne": 8211,
      "plana": 8212,
      "ujutro": 8213,
      "poznata": 8214,
      "prometa": 8215,
      "njene": 8216,
      "Gro": 8217,
      "ilu": 8218,
      "seg": 8219,
      "prijava": 8220,
      "slučajevima": 8221,
      "##33": 8222,
      "osigurati": 8223,
      "##we": 8224,
      "očekivati": 8225,
      "argu": 8226,
      "rođenda": 8227,
      "polaz": 8228,
      "mlađi": 8229,
      "memo": 8230,
      "Fer": 8231,
      "vaša": 8232,
      "Atla": 8233,
      "Cop": 8234,
      "spava": 8235,
      "slobodu": 8236,
      "saradnji": 8237,
      "##dnji": 8238,
      "svakoj": 8239,
      "dosti": 8240,
      "velik": 8241,
      "trgovine": 8242,
      "uzeti": 8243,
      "izbjegli": 8244,
      "##tinu": 8245,
      "veću": 8246,
      "radionica": 8247,
      "ljudskih": 8248,
      "##rskoj": 8249,
      "ispriča": 8250,
      "polako": 8251,
      "poslovni": 8252,
      "##ted": 8253,
      "Evrope": 8254,
      "ula": 8255,
      "vodom": 8256,
      "Malo": 8257,
      "odlučili": 8258,
      "razmatra": 8259,
      "Pret": 8260,
      "Stje": 8261,
      "##loškog": 8262,
      "##sve": 8263,
      "men": 8264,
      "pobjede": 8265,
      "discipli": 8266,
      "vizu": 8267,
      "razdoblje": 8268,
      "ae": 8269,
      "##nal": 8270,
      "Gle": 8271,
      "zakonom": 8272,
      "##živanja": 8273,
      "govor": 8274,
      "aplikacija": 8275,
      "##dži": 8276,
      "čovek": 8277,
      "hoda": 8278,
      "kilogra": 8279,
      "##vene": 8280,
      "htio": 8281,
      "##tlji": 8282,
      "riješiti": 8283,
      "desetak": 8284,
      "190": 8285,
      "Molimo": 8286,
      "kontra": 8287,
      "kojega": 8288,
      "##mnji": 8289,
      "osobu": 8290,
      "suradnju": 8291,
      "subjek": 8292,
      "##lište": 8293,
      "Izvo": 8294,
      "pes": 8295,
      "mrežama": 8296,
      "pobjedu": 8297,
      "namir": 8298,
      "sustavu": 8299,
      "##tivnu": 8300,
      "##crta": 8301,
      "##lko": 8302,
      "##hone": 8303,
      "vratio": 8304,
      "dovesti": 8305,
      "##jati": 8306,
      "mira": 8307,
      "1998": 8308,
      "##tivnom": 8309,
      "najveća": 8310,
      "pretvori": 8311,
      "prijevoz": 8312,
      "ut": 8313,
      "glavi": 8314,
      "Udruga": 8315,
      "stručni": 8316,
      "brojnim": 8317,
      "koristimo": 8318,
      "položaj": 8319,
      "puca": 8320,
      "##roma": 8321,
      "Plen": 8322,
      "potpred": 8323,
      "nacionalne": 8324,
      "##volji": 8325,
      "##rujem": 8326,
      "dodatne": 8327,
      "hrvatskim": 8328,
      "##nat": 8329,
      "ukaza": 8330,
      "mozda": 8331,
      "pripreme": 8332,
      "narodu": 8333,
      "sen": 8334,
      "##dnice": 8335,
      "##lskog": 8336,
      "54": 8337,
      "Primje": 8338,
      "korisnik": 8339,
      "Italy": 8340,
      "World": 8341,
      "delu": 8342,
      "##DU": 8343,
      "lege": 8344,
      "Godine": 8345,
      "čim": 8346,
      "poce": 8347,
      "katoli": 8348,
      "naselju": 8349,
      "##bna": 8350,
      "šo": 8351,
      "sveće": 8352,
      "nabav": 8353,
      "porez": 8354,
      "brat": 8355,
      "##živanje": 8356,
      "##ljno": 8357,
      "optere": 8358,
      "ulice": 8359,
      "Njiho": 8360,
      "OS": 8361,
      "republi": 8362,
      "naslov": 8363,
      "spli": 8364,
      "##đivanja": 8365,
      "suz": 8366,
      "Zanim": 8367,
      "##đivati": 8368,
      "bave": 8369,
      "projekat": 8370,
      "resur": 8371,
      "povla": 8372,
      "##desetak": 8373,
      "cijeni": 8374,
      "Oče": 8375,
      "##AJ": 8376,
      "ozbiljno": 8377,
      "Andre": 8378,
      "##zde": 8379,
      "promatra": 8380,
      "učenike": 8381,
      "stara": 8382,
      "vazdu": 8383,
      "##dovolj": 8384,
      "oktobra": 8385,
      "##stavljanje": 8386,
      "##ps": 8387,
      "jam": 8388,
      "odličan": 8389,
      "podsjeća": 8390,
      "arti": 8391,
      "neod": 8392,
      "učenicima": 8393,
      "##spira": 8394,
      "stigao": 8395,
      "Skupštine": 8396,
      "##ela": 8397,
      "uslije": 8398,
      "##slava": 8399,
      "rastu": 8400,
      "##jice": 8401,
      "aktivnostima": 8402,
      "grani": 8403,
      "doka": 8404,
      "optimi": 8405,
      "troškova": 8406,
      "##žak": 8407,
      "najnovi": 8408,
      "##ff": 8409,
      "zainteresi": 8410,
      "##67": 8411,
      "napravili": 8412,
      "##wn": 8413,
      "##nstva": 8414,
      "djelovanja": 8415,
      "stri": 8416,
      "Kova": 8417,
      "maši": 8418,
      "programe": 8419,
      "međunarodne": 8420,
      "signa": 8421,
      "dodati": 8422,
      "vašim": 8423,
      "##dekva": 8424,
      "pokazali": 8425,
      "Petra": 8426,
      "##30": 8427,
      "You": 8428,
      "molim": 8429,
      "##torica": 8430,
      "ten": 8431,
      "info": 8432,
      "novinara": 8433,
      "svjetskog": 8434,
      "državnog": 8435,
      "rekonstru": 8436,
      "pratiti": 8437,
      "košarka": 8438,
      "##tnike": 8439,
      "Poz": 8440,
      "cilja": 8441,
      "strah": 8442,
      "javnim": 8443,
      "adresa": 8444,
      "katastro": 8445,
      "pomalo": 8446,
      "jedni": 8447,
      "orije": 8448,
      "##štaju": 8449,
      "dala": 8450,
      "funkcionalnosti": 8451,
      "Postoji": 8452,
      "Dani": 8453,
      "koordina": 8454,
      "##došli": 8455,
      "dosto": 8456,
      "##spa": 8457,
      "sekre": 8458,
      "kosti": 8459,
      "hor": 8460,
      "širi": 8461,
      "boravak": 8462,
      "zalju": 8463,
      "nađe": 8464,
      "##mni": 8465,
      "pomis": 8466,
      "ekra": 8467,
      "domaće": 8468,
      "Kolači": 8469,
      "HT": 8470,
      "Trenu": 8471,
      "##nče": 8472,
      "ulaganja": 8473,
      "Tomislav": 8474,
      "sudu": 8475,
      "##kinja": 8476,
      "događaj": 8477,
      "ambasa": 8478,
      "inteli": 8479,
      "razlike": 8480,
      "sukladno": 8481,
      "Andro": 8482,
      "sreću": 8483,
      "rođen": 8484,
      "poslovnih": 8485,
      "korisnike": 8486,
      "vlasništvu": 8487,
      "##ditetom": 8488,
      "neću": 8489,
      "školama": 8490,
      "##80": 8491,
      "Ža": 8492,
      "zadovoljstvo": 8493,
      "Nastav": 8494,
      "potreban": 8495,
      "premijera": 8496,
      "predsednika": 8497,
      "primjerice": 8498,
      "Preporu": 8499,
      "dijelom": 8500,
      "opu": 8501,
      "Španjo": 8502,
      "dvorani": 8503,
      "zdravstvene": 8504,
      "inspek": 8505,
      "##izvo": 8506,
      "One": 8507,
      "zapošljavanje": 8508,
      "činjenice": 8509,
      "večeri": 8510,
      "William": 8511,
      "HRVA": 8512,
      "##II": 8513,
      "##ncima": 8514,
      "otvoren": 8515,
      "Glavni": 8516,
      "invaliditetom": 8517,
      "upis": 8518,
      "labora": 8519,
      "nastup": 8520,
      "pružanje": 8521,
      "popis": 8522,
      "voditi": 8523,
      "samim": 8524,
      "Filozof": 8525,
      "momčad": 8526,
      "##gović": 8527,
      "##šeno": 8528,
      "crkva": 8529,
      "##nema": 8530,
      "##siju": 8531,
      "##godišnjeg": 8532,
      "disku": 8533,
      "Moja": 8534,
      "##jke": 8535,
      "eng": 8536,
      "jedinice": 8537,
      "dozvole": 8538,
      "Udruge": 8539,
      "feno": 8540,
      "igrači": 8541,
      "##cijskim": 8542,
      "definitivno": 8543,
      "počne": 8544,
      "##taciju": 8545,
      "mjestima": 8546,
      "nave": 8547,
      "ošt": 8548,
      "##vencije": 8549,
      "dovodi": 8550,
      "56": 8551,
      "lik": 8552,
      "značajno": 8553,
      "licu": 8554,
      "sigurni": 8555,
      "troškove": 8556,
      "uspije": 8557,
      "problemi": 8558,
      "sop": 8559,
      "##hvata": 8560,
      "cer": 8561,
      "donijeti": 8562,
      "doista": 8563,
      "##ot": 8564,
      "Isla": 8565,
      "hrani": 8566,
      "zatvora": 8567,
      "imenom": 8568,
      "referendu": 8569,
      "iP": 8570,
      "250": 8571,
      "##dy": 8572,
      "Super": 8573,
      "по": 8574,
      "Film": 8575,
      "stručnjaka": 8576,
      "korisničkog": 8577,
      "sabor": 8578,
      "##heo": 8579,
      "najveće": 8580,
      "slijedi": 8581,
      "1992": 8582,
      "manasti": 8583,
      "PR": 8584,
      "##11": 8585,
      "aktivno": 8586,
      "##mci": 8587,
      "hrana": 8588,
      "igraju": 8589,
      "Bila": 8590,
      "komisije": 8591,
      "##ljaka": 8592,
      "crkvi": 8593,
      "prostorijama": 8594,
      "95": 8595,
      "ostane": 8596,
      "molimo": 8597,
      "kultura": 8598,
      "jela": 8599,
      "preuzeti": 8600,
      "PI": 8601,
      "vidite": 8602,
      "##AR": 8603,
      "selu": 8604,
      "##lska": 8605,
      "nekoga": 8606,
      "bizni": 8607,
      "##lista": 8608,
      "zauze": 8609,
      "upita": 8610,
      "52": 8611,
      "##žnu": 8612,
      "kolačići": 8613,
      "prvenstveno": 8614,
      "Oda": 8615,
      "naime": 8616,
      "Dinamo": 8617,
      "promovi": 8618,
      "kreće": 8619,
      "polja": 8620,
      "kategorije": 8621,
      "Vuko": 8622,
      "nez": 8623,
      "##form": 8624,
      "ustanove": 8625,
      "##ljima": 8626,
      "uloga": 8627,
      "Index": 8628,
      "znaš": 8629,
      "nose": 8630,
      "##tovima": 8631,
      "cesta": 8632,
      "objavila": 8633,
      "moru": 8634,
      "halji": 8635,
      "ovisi": 8636,
      "##janja": 8637,
      "jedva": 8638,
      "materijal": 8639,
      "važan": 8640,
      "upravljanja": 8641,
      "momčadi": 8642,
      "Viso": 8643,
      "sezonu": 8644,
      "županija": 8645,
      "##jnog": 8646,
      "zgrada": 8647,
      "izložba": 8648,
      "zadnje": 8649,
      "ljudska": 8650,
      "kose": 8651,
      "uvjeti": 8652,
      "Jova": 8653,
      "majsto": 8654,
      "potrebu": 8655,
      "##yri": 8656,
      "tijelu": 8657,
      "Arhi": 8658,
      "##finan": 8659,
      "priklju": 8660,
      "vezu": 8661,
      "##čite": 8662,
      "Ver": 8663,
      "mada": 8664,
      "pismo": 8665,
      "stavove": 8666,
      "majke": 8667,
      "##que": 8668,
      "izvrše": 8669,
      "opozi": 8670,
      "##čana": 8671,
      "##prje": 8672,
      "##ntne": 8673,
      "stručnjaci": 8674,
      "Sana": 8675,
      "ostvariti": 8676,
      "##ET": 8677,
      "blog": 8678,
      "##lmati": 8679,
      "udar": 8680,
      "ponašanja": 8681,
      "poreza": 8682,
      "Vladimir": 8683,
      "##tov": 8684,
      "rizik": 8685,
      "avgu": 8686,
      "bosan": 8687,
      "najpoznati": 8688,
      "##vljene": 8689,
      "##hije": 8690,
      "##GO": 8691,
      "izvori": 8692,
      "inost": 8693,
      "##novo": 8694,
      "razgovora": 8695,
      "Poslje": 8696,
      "pute": 8697,
      "branitelja": 8698,
      "društvenih": 8699,
      "prethodno": 8700,
      "Pot": 8701,
      "Crnoj": 8702,
      "vrednosti": 8703,
      "postignu": 8704,
      "##ron": 8705,
      "nastoja": 8706,
      "##šći": 8707,
      "##CIJA": 8708,
      "objave": 8709,
      "otišao": 8710,
      "upotrebu": 8711,
      "septembra": 8712,
      "najljep": 8713,
      "##tinj": 8714,
      "Rumu": 8715,
      "Zvo": 8716,
      "članice": 8717,
      "potrebi": 8718,
      "57": 8719,
      "takvo": 8720,
      "##woo": 8721,
      "pouzda": 8722,
      "linije": 8723,
      "Japa": 8724,
      "John": 8725,
      "inženje": 8726,
      "##viju": 8727,
      "##mokra": 8728,
      "Budući": 8729,
      "Gora": 8730,
      "pomaga": 8731,
      "dosad": 8732,
      "danima": 8733,
      "vremenom": 8734,
      "objavljen": 8735,
      "Kur": 8736,
      "##šajte": 8737,
      "Hotel": 8738,
      "uslovima": 8739,
      "600": 8740,
      "Bosna": 8741,
      "penzi": 8742,
      "Gdje": 8743,
      "##tt": 8744,
      "duboko": 8745,
      "dinami": 8746,
      "marta": 8747,
      "poša": 8748,
      "Time": 8749,
      "##šeni": 8750,
      "kvalitetu": 8751,
      "Una": 8752,
      "Chi": 8753,
      "eu": 8754,
      "komentare": 8755,
      "pomogne": 8756,
      "##zivanje": 8757,
      "izbjega": 8758,
      "pobu": 8759,
      "pozori": 8760,
      "##štenja": 8761,
      "Novog": 8762,
      "1995": 8763,
      "##štem": 8764,
      "prehra": 8765,
      "otvoreno": 8766,
      "dobit": 8767,
      "trgo": 8768,
      "prete": 8769,
      "Pristup": 8770,
      "smještaj": 8771,
      "povolj": 8772,
      "bolni": 8773,
      "podrške": 8774,
      "prisi": 8775,
      "menja": 8776,
      "osvr": 8777,
      "prekrša": 8778,
      "gradonačelnika": 8779,
      "cijelog": 8780,
      "forum": 8781,
      "KS": 8782,
      "##grada": 8783,
      "pjesma": 8784,
      "volo": 8785,
      "devoj": 8786,
      "sekundi": 8787,
      "##ри": 8788,
      "OP": 8789,
      "##plji": 8790,
      "brže": 8791,
      "1990": 8792,
      "morali": 8793,
      "Goran": 8794,
      "uništi": 8795,
      "slabo": 8796,
      "loš": 8797,
      "Koristi": 8798,
      "roditeljima": 8799,
      "##šnjo": 8800,
      "ora": 8801,
      "maga": 8802,
      "by": 8803,
      "Mos": 8804,
      "zaštita": 8805,
      "ljeta": 8806,
      "osobne": 8807,
      "##tnje": 8808,
      "filmo": 8809,
      "kompe": 8810,
      "stvore": 8811,
      "izrade": 8812,
      "posebne": 8813,
      "svjetlo": 8814,
      "Evropi": 8815,
      "voditelj": 8816,
      "raspolaganju": 8817,
      "Drago": 8818,
      "opisu": 8819,
      "##šnu": 8820,
      "##hla": 8821,
      "##lizaciji": 8822,
      "zadnji": 8823,
      "Posebno": 8824,
      "##zoru": 8825,
      "regiji": 8826,
      "stvaranje": 8827,
      "sprema": 8828,
      "##licu": 8829,
      "Austra": 8830,
      "naslje": 8831,
      "releva": 8832,
      "FBiH": 8833,
      "##isiji": 8834,
      "stup": 8835,
      "##vini": 8836,
      "III": 8837,
      "razum": 8838,
      "gospodarstva": 8839,
      "linija": 8840,
      "štetu": 8841,
      "Genera": 8842,
      "##lira": 8843,
      "Ivo": 8844,
      "radim": 8845,
      "književnosti": 8846,
      "obraz": 8847,
      "ikada": 8848,
      "objekta": 8849,
      "##ljenim": 8850,
      "nespo": 8851,
      "We": 8852,
      "njom": 8853,
      "Tvr": 8854,
      "Video": 8855,
      "ponašanje": 8856,
      "##stavno": 8857,
      "##ny": 8858,
      "Član": 8859,
      "##žnom": 8860,
      "fazi": 8861,
      "DE": 8862,
      "##tela": 8863,
      "##dov": 8864,
      "potak": 8865,
      "##dit": 8866,
      "prepu": 8867,
      "tvrtki": 8868,
      "anke": 8869,
      "onu": 8870,
      "poremeća": 8871,
      "##čenih": 8872,
      "odgovori": 8873,
      "##ding": 8874,
      "##stao": 8875,
      "##nicom": 8876,
      "##sov": 8877,
      "##tniji": 8878,
      "održat": 8879,
      "ostaviti": 8880,
      "sreće": 8881,
      "##zina": 8882,
      "odbija": 8883,
      "problemima": 8884,
      "obavezno": 8885,
      "mog": 8886,
      "##čje": 8887,
      "nekoj": 8888,
      "##gnosti": 8889,
      "sporazum": 8890,
      "Vrlo": 8891,
      "verzija": 8892,
      "dužnosti": 8893,
      "izbe": 8894,
      "klubu": 8895,
      "##štene": 8896,
      "uprava": 8897,
      "##zanja": 8898,
      "##nis": 8899,
      "sastavu": 8900,
      "fonda": 8901,
      "zadnjih": 8902,
      "Croati": 8903,
      "##BE": 8904,
      "reprezentacije": 8905,
      "##šnim": 8906,
      "jese": 8907,
      "Rusiji": 8908,
      "napred": 8909,
      "preve": 8910,
      "Polj": 8911,
      "studij": 8912,
      "net": 8913,
      "Dže": 8914,
      "kliknite": 8915,
      "učini": 8916,
      "sramo": 8917,
      "##đenim": 8918,
      "datum": 8919,
      "posljednji": 8920,
      "Kultu": 8921,
      "pad": 8922,
      "##šem": 8923,
      "komunisti": 8924,
      "najbolja": 8925,
      "područjima": 8926,
      "sru": 8927,
      "pojedinih": 8928,
      "svjetski": 8929,
      "brojnih": 8930,
      "##gnuti": 8931,
      "preze": 8932,
      "##lisa": 8933,
      "spreman": 8934,
      "prošlog": 8935,
      "##96": 8936,
      "prijedloga": 8937,
      "litera": 8938,
      "VA": 8939,
      "funkcionira": 8940,
      "zatvori": 8941,
      "imovine": 8942,
      "##tifika": 8943,
      "cookies": 8944,
      "sumnje": 8945,
      "liste": 8946,
      "razmis": 8947,
      "obele": 8948,
      "1000": 8949,
      "dato": 8950,
      "sopstve": 8951,
      "školske": 8952,
      "Petar": 8953,
      "Dragan": 8954,
      "uopšte": 8955,
      "pregovo": 8956,
      "glasi": 8957,
      "Bur": 8958,
      "umet": 8959,
      "Kosovu": 8960,
      "Zajedni": 8961,
      "Ter": 8962,
      "Kore": 8963,
      "##lt": 8964,
      "polje": 8965,
      "poduzeća": 8966,
      "organa": 8967,
      "potporu": 8968,
      "izvede": 8969,
      "64": 8970,
      "##PU": 8971,
      "##los": 8972,
      "prostorima": 8973,
      "rezo": 8974,
      "##laganja": 8975,
      "robo": 8976,
      "##ograd": 8977,
      "decu": 8978,
      "zanimljivo": 8979,
      "Bli": 8980,
      "prirodi": 8981,
      "vjenča": 8982,
      "##vači": 8983,
      "našao": 8984,
      "##vijet": 8985,
      "savreme": 8986,
      "Kate": 8987,
      "##ntri": 8988,
      "##zirani": 8989,
      "ano": 8990,
      "tale": 8991,
      "izvođa": 8992,
      "##jde": 8993,
      "##DO": 8994,
      "##tnicima": 8995,
      "##part": 8996,
      "Republika": 8997,
      "projektima": 8998,
      "utjecaj": 8999,
      "Onda": 9000,
      "fantasti": 9001,
      "##vanih": 9002,
      "stil": 9003,
      "energiju": 9004,
      "Ara": 9005,
      "humanitar": 9006,
      "malim": 9007,
      "čokola": 9008,
      "radove": 9009,
      "pokušava": 9010,
      "LE": 9011,
      "##noci": 9012,
      "##žuju": 9013,
      "##zite": 9014,
      "nukle": 9015,
      "SVE": 9016,
      "Svetog": 9017,
      "posljedice": 9018,
      "##rića": 9019,
      "##vjeli": 9020,
      "saveza": 9021,
      "skladi": 9022,
      "##vek": 9023,
      "##23": 9024,
      "##zana": 9025,
      "probu": 9026,
      "Tokom": 9027,
      "##binu": 9028,
      "min": 9029,
      "funkcije": 9030,
      "Nad": 9031,
      "opće": 9032,
      "##gore": 9033,
      "porodica": 9034,
      "hiljada": 9035,
      "Sha": 9036,
      "djelovanje": 9037,
      "transpo": 9038,
      "ženama": 9039,
      "ex": 9040,
      "preo": 9041,
      "Federacije": 9042,
      "nude": 9043,
      "##tualno": 9044,
      "internetu": 9045,
      "Nažalost": 9046,
      "iskori": 9047,
      "uvi": 9048,
      "Bel": 9049,
      "FOTO": 9050,
      "nemamo": 9051,
      "Ale": 9052,
      "Anti": 9053,
      "skre": 9054,
      "domu": 9055,
      "teren": 9056,
      "privla": 9057,
      "##ро": 9058,
      "##vec": 9059,
      "programi": 9060,
      "najma": 9061,
      "akciju": 9062,
      "crta": 9063,
      "##ćnost": 9064,
      "aprila": 9065,
      "Smatra": 9066,
      "##jnim": 9067,
      "##gana": 9068,
      "zapovje": 9069,
      "uživati": 9070,
      "HRVAT": 9071,
      "Kli": 9072,
      "##produ": 9073,
      "Proda": 9074,
      "Vukovar": 9075,
      "##cina": 9076,
      "Italian": 9077,
      "liječenje": 9078,
      "Kroz": 9079,
      "Prijavite": 9080,
      "studenog": 9081,
      "informi": 9082,
      "##torom": 9083,
      "uzor": 9084,
      "Imam": 9085,
      "##gić": 9086,
      "ovakve": 9087,
      "industrije": 9088,
      "##lona": 9089,
      "mra": 9090,
      "podse": 9091,
      "53": 9092,
      "nemoguće": 9093,
      "smjer": 9094,
      "proglasi": 9095,
      "zajednici": 9096,
      "Rea": 9097,
      "praksi": 9098,
      "upoznati": 9099,
      "verovatno": 9100,
      "Italija": 9101,
      "##loška": 9102,
      "glavnog": 9103,
      "##lus": 9104,
      "terori": 9105,
      "Turisti": 9106,
      "obliko": 9107,
      "državnih": 9108,
      "nijan": 9109,
      "Koji": 9110,
      "kale": 9111,
      "##žnji": 9112,
      "Župani": 9113,
      "napravi": 9114,
      "aktu": 9115,
      "članku": 9116,
      "Mode": 9117,
      "dane": 9118,
      "služba": 9119,
      "većinu": 9120,
      "Oso": 9121,
      "isho": 9122,
      "##njenje": 9123,
      "##OVO": 9124,
      "stje": 9125,
      "##GI": 9126,
      "Predse": 9127,
      "##ćenju": 9128,
      "obr": 9129,
      "nositi": 9130,
      "očima": 9131,
      "##zerva": 9132,
      "##unt": 9133,
      "funkciju": 9134,
      "smanjenje": 9135,
      "projekti": 9136,
      "pče": 9137,
      "##та": 9138,
      "Proble": 9139,
      "opcija": 9140,
      "raspravlja": 9141,
      "lokalnih": 9142,
      "konferencije": 9143,
      "##šnjim": 9144,
      "obraća": 9145,
      "istinu": 9146,
      "minute": 9147,
      "pun": 9148,
      "Usta": 9149,
      "##noda": 9150,
      "vijeć": 9151,
      "stanice": 9152,
      "roditelj": 9153,
      "novoj": 9154,
      "usvoji": 9155,
      "##her": 9156,
      "redovito": 9157,
      "izgradnje": 9158,
      "rs": 9159,
      "opasnost": 9160,
      "takvu": 9161,
      "privati": 9162,
      "pokraji": 9163,
      "grija": 9164,
      "kvadra": 9165,
      "apsolutno": 9166,
      "aktivnost": 9167,
      "postaviti": 9168,
      "lega": 9169,
      "kaze": 9170,
      "potvrdio": 9171,
      "predvo": 9172,
      "brod": 9173,
      "bloki": 9174,
      "bori": 9175,
      "poslati": 9176,
      "Proizvo": 9177,
      "institucijama": 9178,
      "pale": 9179,
      "BA": 9180,
      "##ons": 9181,
      "američke": 9182,
      "suradnje": 9183,
      "##ntni": 9184,
      "ise": 9185,
      "##štinu": 9186,
      "Ljuba": 9187,
      "privu": 9188,
      "župani": 9189,
      "uhvati": 9190,
      "que": 9191,
      "Većina": 9192,
      "domaćih": 9193,
      "odavno": 9194,
      "##xa": 9195,
      "brojem": 9196,
      "bolnice": 9197,
      "naknade": 9198,
      "donio": 9199,
      "aku": 9200,
      "##26": 9201,
      "##dobno": 9202,
      "opasnosti": 9203,
      "opse": 9204,
      "priprem": 9205,
      "##rskog": 9206,
      "sredstvima": 9207,
      "Ukup": 9208,
      "unatoč": 9209,
      "krug": 9210,
      "objašnjava": 9211,
      "arhitektu": 9212,
      "pravne": 9213,
      "##lizma": 9214,
      "Zdrav": 9215,
      "##tala": 9216,
      "platiti": 9217,
      "vezane": 9218,
      "pjesmu": 9219,
      "deve": 9220,
      "postali": 9221,
      "sezoni": 9222,
      "58": 9223,
      "##zila": 9224,
      "vjeruje": 9225,
      "MUP": 9226,
      "detalje": 9227,
      "##jum": 9228,
      "jede": 9229,
      "##bit": 9230,
      "zločin": 9231,
      "sav": 9232,
      "Nemo": 9233,
      "##vljenja": 9234,
      "gostiju": 9235,
      "vlastite": 9236,
      "štiti": 9237,
      "##RAN": 9238,
      "teže": 9239,
      "zaga": 9240,
      "ušte": 9241,
      "Zar": 9242,
      "Željko": 9243,
      "Afri": 9244,
      "##mpu": 9245,
      "pritom": 9246,
      "vrstu": 9247,
      "sastanku": 9248,
      "##gledno": 9249,
      "Zadru": 9250,
      "##dala": 9251,
      "pozvao": 9252,
      "osvje": 9253,
      "##krea": 9254,
      "59": 9255,
      "##rca": 9256,
      "Ak": 9257,
      "##onu": 9258,
      "spra": 9259,
      "obli": 9260,
      "Velike": 9261,
      "##pilo": 9262,
      "avan": 9263,
      "##ntna": 9264,
      "##mera": 9265,
      "##pise": 9266,
      "con": 9267,
      "bate": 9268,
      "šef": 9269,
      "##berite": 9270,
      "nećemo": 9271,
      "europskih": 9272,
      "##java": 9273,
      "sviđa": 9274,
      "poča": 9275,
      "jula": 9276,
      "interesu": 9277,
      "izbori": 9278,
      "dodatni": 9279,
      "##mično": 9280,
      "##plje": 9281,
      "izgubio": 9282,
      "lokaciji": 9283,
      "ruka": 9284,
      "automatski": 9285,
      "izbaci": 9286,
      "velikoj": 9287,
      "vjere": 9288,
      "vlasnika": 9289,
      "Odje": 9290,
      "stanica": 9291,
      "hrabro": 9292,
      "destina": 9293,
      "ovome": 9294,
      "Elek": 9295,
      "##jE": 9296,
      "javnom": 9297,
      "tuži": 9298,
      "Imamo": 9299,
      "dužan": 9300,
      "##godišnja": 9301,
      "test": 9302,
      "Osijek": 9303,
      "temperature": 9304,
      "osnovi": 9305,
      "koncentra": 9306,
      "radne": 9307,
      "međuvremenu": 9308,
      "važna": 9309,
      "boravka": 9310,
      "pritisak": 9311,
      "životinje": 9312,
      "analize": 9313,
      "imple": 9314,
      "##mda": 9315,
      "dvadeset": 9316,
      "dla": 9317,
      "##ма": 9318,
      "povratak": 9319,
      "##hvat": 9320,
      "morala": 9321,
      "vašu": 9322,
      "sektora": 9323,
      "popla": 9324,
      "Star": 9325,
      "Naši": 9326,
      "prakse": 9327,
      "količine": 9328,
      "analiti": 9329,
      "baci": 9330,
      "##vjeta": 9331,
      "dešava": 9332,
      "vladi": 9333,
      "##mon": 9334,
      "##phy": 9335,
      "##SU": 9336,
      "bolja": 9337,
      "smanjuje": 9338,
      "menadže": 9339,
      "samouprave": 9340,
      "kredita": 9341,
      "napokon": 9342,
      "Dva": 9343,
      "pojma": 9344,
      "zemljišta": 9345,
      "##ima": 9346,
      "from": 9347,
      "##čare": 9348,
      "Mitro": 9349,
      "##yright": 9350,
      "zate": 9351,
      "čišćenje": 9352,
      "Agencija": 9353,
      "dvostru": 9354,
      "opsta": 9355,
      "##šnom": 9356,
      "87": 9357,
      "##sten": 9358,
      "Vele": 9359,
      "iskoristiti": 9360,
      "posre": 9361,
      "HRT": 9362,
      "osposo": 9363,
      "karte": 9364,
      "priznanja": 9365,
      "##istori": 9366,
      "##žnju": 9367,
      "fla": 9368,
      "nepra": 9369,
      "Hrvatskom": 9370,
      "radnici": 9371,
      "podnije": 9372,
      "##nogo": 9373,
      "prvenstvu": 9374,
      "uzme": 9375,
      "obrane": 9376,
      "pomažu": 9377,
      "zvijezda": 9378,
      "##ANJE": 9379,
      "raka": 9380,
      "deca": 9381,
      "##rijar": 9382,
      "##fal": 9383,
      "šti": 9384,
      "stoje": 9385,
      "otići": 9386,
      "postići": 9387,
      "radimo": 9388,
      "načine": 9389,
      "Odluke": 9390,
      "188": 9391,
      "odlučila": 9392,
      "Dubrovnik": 9393,
      "##juće": 9394,
      "##ree": 9395,
      "perspekti": 9396,
      "poljoprivrede": 9397,
      "komunikacije": 9398,
      "sporazuma": 9399,
      "##tković": 9400,
      "##ла": 9401,
      "Windo": 9402,
      "##str": 9403,
      "korisničko": 9404,
      "odlazak": 9405,
      "zase": 9406,
      "osvojila": 9407,
      "Sarajeva": 9408,
      "savršeno": 9409,
      "##SE": 9410,
      "Sc": 9411,
      "popri": 9412,
      "dolazak": 9413,
      "##by": 9414,
      "##rojatno": 9415,
      "Dragi": 9416,
      "firme": 9417,
      "Postoje": 9418,
      "priznati": 9419,
      "Save": 9420,
      "jaja": 9421,
      "Gar": 9422,
      "##stavan": 9423,
      "##kali": 9424,
      "performa": 9425,
      "obolje": 9426,
      "glavna": 9427,
      "znaci": 9428,
      "veličine": 9429,
      "##malo": 9430,
      "zim": 9431,
      "predavanje": 9432,
      "učenje": 9433,
      "rijetko": 9434,
      "Zatim": 9435,
      "relativno": 9436,
      "##res": 9437,
      "genoci": 9438,
      "dode": 9439,
      "praćenje": 9440,
      "igara": 9441,
      "##66": 9442,
      "Web": 9443,
      "đa": 9444,
      "poje": 9445,
      "izjave": 9446,
      "Austri": 9447,
      "sudjelovanje": 9448,
      "Italiji": 9449,
      "kulturno": 9450,
      "poslovanje": 9451,
      "adekva": 9452,
      "link": 9453,
      "Pože": 9454,
      "BH": 9455,
      "uslugu": 9456,
      "на": 9457,
      "spominje": 9458,
      "prica": 9459,
      "obna": 9460,
      "CO": 9461,
      "događanja": 9462,
      "##zar": 9463,
      "##tnji": 9464,
      "saradnju": 9465,
      "Kara": 9466,
      "izdvoji": 9467,
      "grupi": 9468,
      "##đite": 9469,
      "pojave": 9470,
      "članove": 9471,
      "Hr": 9472,
      "IV": 9473,
      "umr": 9474,
      "kontekstu": 9475,
      "robe": 9476,
      "pretje": 9477,
      "##dora": 9478,
      "Crno": 9479,
      "##čim": 9480,
      "##mpe": 9481,
      "proračuna": 9482,
      "##voja": 9483,
      "udruženja": 9484,
      "##ljana": 9485,
      "stručnog": 9486,
      "postaju": 9487,
      "kazala": 9488,
      "analizira": 9489,
      "četvrti": 9490,
      "Her": 9491,
      "ideju": 9492,
      "takvi": 9493,
      "##prilike": 9494,
      "djecom": 9495,
      "##ćenito": 9496,
      "stiže": 9497,
      "##FA": 9498,
      "žal": 9499,
      "pare": 9500,
      "luksu": 9501,
      "Glo": 9502,
      "Tuđ": 9503,
      "##misije": 9504,
      "eksperi": 9505,
      "sala": 9506,
      "poha": 9507,
      "Francuske": 9508,
      "HA": 9509,
      "satima": 9510,
      "Copyright": 9511,
      "Akade": 9512,
      "međusobno": 9513,
      "##vosti": 9514,
      "Micro": 9515,
      "desni": 9516,
      "uboj": 9517,
      "##ци": 9518,
      "mama": 9519,
      "supruga": 9520,
      "##lis": 9521,
      "fro": 9522,
      "kore": 9523,
      "gospoda": 9524,
      "ubrza": 9525,
      "##zer": 9526,
      "sadrže": 9527,
      "ovisno": 9528,
      "bolnici": 9529,
      "natječaja": 9530,
      "##duše": 9531,
      "usavr": 9532,
      "##rtava": 9533,
      "oružja": 9534,
      "portalu": 9535,
      "izboru": 9536,
      "##riše": 9537,
      "umiro": 9538,
      "##gare": 9539,
      "Nadam": 9540,
      "kompone": 9541,
      "Insta": 9542,
      "Cijena": 9543,
      "800": 9544,
      "Loka": 9545,
      "##dati": 9546,
      "spozna": 9547,
      "ispro": 9548,
      "članovima": 9549,
      "najnovije": 9550,
      "šanse": 9551,
      "##mbo": 9552,
      "dogoditi": 9553,
      "##vencija": 9554,
      "##diju": 9555,
      "putovanje": 9556,
      "##vačke": 9557,
      "neis": 9558,
      "selo": 9559,
      "Trenutno": 9560,
      "zaro": 9561,
      "ina": 9562,
      "kakvu": 9563,
      "##šavanju": 9564,
      "kot": 9565,
      "##žom": 9566,
      "##orđe": 9567,
      "kapaciteta": 9568,
      "sinoć": 9569,
      "smanjiti": 9570,
      "##tacija": 9571,
      "##stio": 9572,
      "##fera": 9573,
      "##đenog": 9574,
      "Isti": 9575,
      "##ngu": 9576,
      "njena": 9577,
      "##95": 9578,
      "##dju": 9579,
      "natjecanje": 9580,
      "slučajno": 9581,
      "Poslije": 9582,
      "dugoro": 9583,
      "meseci": 9584,
      "interak": 9585,
      "emi": 9586,
      "modu": 9587,
      "rezu": 9588,
      "##činje": 9589,
      "najsta": 9590,
      "milijarde": 9591,
      "novembra": 9592,
      "izba": 9593,
      "up": 9594,
      "poziciju": 9595,
      "cijelo": 9596,
      "hri": 9597,
      "Maksi": 9598,
      "učestvu": 9599,
      "važnosti": 9600,
      "opora": 9601,
      "najvažnije": 9602,
      "privreme": 9603,
      "##phi": 9604,
      "izgublje": 9605,
[...]
